const unsigned char gesture_model[] = {
0x1c, 0x00, 0x00, 0x00, 0x54, 0x46, 0x4c, 0x33, 0x14, 0x00, 0x20, 0x00, 0x1c, 0x00, 0x18, 0x00, 0x14, 0x00, 0x10, 0x00, 0x0c, 0x00, 0x00, 0x00, 0x08, 0x00, 0x04, 0x00, 0x14, 0x00, 0x00, 0x00, 0x1c, 0x00, 0x00, 0x00, 0x80, 0x00, 0x00, 0x00, 0xd8, 0x00, 0x00, 0x00, 0x70, 0x1b, 0x00, 0x00, 0x80, 0x1b, 0x00, 0x00, 0x88, 0x47, 0x00, 0x00, 0x03, 0x00, 0x00, 0x00, 0x01, 0x00, 0x00, 0x00, 0x04, 0x00, 0x00, 0x00, 0x6a, 0xe0, 0xff, 0xff, 0x0c, 0x00, 0x00, 0x00, 0x1c, 0x00, 0x00, 0x00, 0x38, 0x00, 0x00, 0x00, 0x0f, 0x00, 0x00, 0x00, 0x73, 0x65, 0x72, 0x76, 0x69, 0x6e, 0x67, 0x5f, 0x64, 0x65, 0x66, 0x61, 0x75, 0x6c, 0x74, 0x00, 0x01, 0x00, 0x00, 0x00, 0x04, 0x00, 0x00, 0x00, 0x9c, 0xff, 0xff, 0xff, 0x2d, 0x00, 0x00, 0x00, 0x04, 0x00, 0x00, 0x00, 0x07, 0x00, 0x00, 0x00, 0x64, 0x65, 0x6e, 0x73, 0x65, 0x5f, 0x35, 0x00, 0x01, 0x00, 0x00, 0x00, 0x04, 0x00, 0x00, 0x00, 0x2a, 0xe4, 0xff, 0xff, 0x04, 0x00, 0x00, 0x00, 0x07, 0x00, 0x00, 0x00, 0x69, 0x6e, 0x70, 0x75, 0x74, 0x5f, 0x33, 0x00, 0x02, 0x00, 0x00, 0x00, 0x34, 0x00, 0x00, 0x00, 0x04, 0x00, 0x00, 0x00, 0xdc, 0xff, 0xff, 0xff, 0x30, 0x00, 0x00, 0x00, 0x04, 0x00, 0x00, 0x00, 0x13, 0x00, 0x00, 0x00, 0x43, 0x4f, 0x4e, 0x56, 0x45, 0x52, 0x53, 0x49, 0x4f, 0x4e, 0x5f, 0x4d, 0x45, 0x54, 0x41, 0x44, 0x41, 0x54, 0x41, 0x00, 0x08, 0x00, 0x0c, 0x00, 0x08, 0x00, 0x04, 0x00, 0x08, 0x00, 0x00, 0x00, 0x2f, 0x00, 0x00, 0x00, 0x04, 0x00, 0x00, 0x00, 0x13, 0x00, 0x00, 0x00, 0x6d, 0x69, 0x6e, 0x5f, 0x72, 0x75, 0x6e, 0x74, 0x69, 0x6d, 0x65, 0x5f, 0x76, 0x65, 0x72, 0x73, 0x69, 0x6f, 0x6e, 0x00, 0x31, 0x00, 0x00, 0x00, 0x94, 0x1a, 0x00, 0x00, 0x8c, 0x1a, 0x00, 0x00, 0x78, 0x1a, 0x00, 0x00, 0x5c, 0x1a, 0x00, 0x00, 0x48, 0x1a, 0x00, 0x00, 0x2c, 0x1a, 0x00, 0x00, 0x10, 0x1a, 0x00, 0x00, 0xf4, 0x19, 0x00, 0x00, 0xd8, 0x19, 0x00, 0x00, 0xc4, 0x19, 0x00, 0x00, 0xa4, 0x19, 0x00, 0x00, 0x34, 0x19, 0x00, 0x00, 0xc4, 0x18, 0x00, 0x00, 0xb4, 0x15, 0x00, 0x00, 0x24, 0x15, 0x00, 0x00, 0x14, 0x0c, 0x00, 0x00, 0xec, 0x0b, 0x00, 0x00, 0xc4, 0x0b, 0x00, 0x00, 0x54, 0x0b, 0x00, 0x00, 0xc4, 0x03, 0x00, 0x00, 0xa4, 0x03, 0x00, 0x00, 0x84, 0x03, 0x00, 0x00, 0x34, 0x03, 0x00, 0x00, 0x44, 0x01, 0x00, 0x00, 0x3c, 0x01, 0x00, 0x00, 0x34, 0x01, 0x00, 0x00, 0x2c, 0x01, 0x00, 0x00, 0x24, 0x01, 0x00, 0x00, 0x1c, 0x01, 0x00, 0x00, 0x14, 0x01, 0x00, 0x00, 0x0c, 0x01, 0x00, 0x00, 0x04, 0x01, 0x00, 0x00, 0xfc, 0x00, 0x00, 0x00, 0xf4, 0x00, 0x00, 0x00, 0xec, 0x00, 0x00, 0x00, 0xe4, 0x00, 0x00, 0x00, 0xdc, 0x00, 0x00, 0x00, 0xd4, 0x00, 0x00, 0x00, 0xcc, 0x00, 0x00, 0x00, 0xc4, 0x00, 0x00, 0x00, 0xbc, 0x00, 0x00, 0x00, 0xb4, 0x00, 0x00, 0x00, 0xac, 0x00, 0x00, 0x00, 0xa4, 0x00, 0x00, 0x00, 0x9c, 0x00, 0x00, 0x00, 0x94, 0x00, 0x00, 0x00, 0x8c, 0x00, 0x00, 0x00, 0x6c, 0x00, 0x00, 0x00, 0x04, 0x00, 0x00, 0x00, 0x62, 0xe5, 0xff, 0xff, 0x04, 0x00, 0x00, 0x00, 0x58, 0x00, 0x00, 0x00, 0x0c, 0x00, 0x00, 0x00, 0x08, 0x00, 0x0e, 0x00, 0x08, 0x00, 0x04, 0x00, 0x08, 0x00, 0x00, 0x00, 0x10, 0x00, 0x00, 0x00, 0x28, 0x00, 0x00, 0x00, 0x00, 0x00, 0x06, 0x00, 0x08, 0x00, 0x04, 0x00, 0x06, 0x00, 0x00, 0x00, 0x04, 0x00, 0x00, 0x00, 0x01, 0x00, 0x00, 0x00, 0xeb, 0x03, 0x00, 0x00, 0x00, 0x00, 0x0a, 0x00, 0x10, 0x00, 0x0c, 0x00, 0x08, 0x00, 0x04, 0x00, 0x0a, 0x00, 0x00, 0x00, 0x02, 0x00, 0x00, 0x00, 0x02, 0x00, 0x00, 0x00, 0x04, 0x00, 0x00, 0x00, 0x06, 0x00, 0x00, 0x00, 0x32, 0x2e, 0x31, 0x33, 0x2e, 0x30, 0x00, 0x00, 0xc6, 0xe5, 0xff, 0xff, 0x04, 0x00, 0x00, 0x00, 0x10, 0x00, 0x00, 0x00, 0x31, 0x2e, 0x31, 0x34, 0x2e, 0x30, 0x00, 0x00, 0x00, 0x00, 0x00, 0x00, 0x00, 0x00, 0x00, 0x00, 0x70, 0xbb, 0xff, 0xff, 0x74, 0xbb, 0xff, 0xff, 0x78, 0xbb, 0xff, 0xff, 0x7c, 0xbb, 0xff, 0xff, 0x80, 0xbb, 0xff, 0xff, 0x84, 0xbb, 0xff, 0xff, 0x88, 0xbb, 0xff, 0xff, 0x8c, 0xbb, 0xff, 0xff, 0x90, 0xbb, 0xff, 0xff, 0x94, 0xbb, 0xff, 0xff, 0x98, 0xbb, 0xff, 0xff, 0x9c, 0xbb, 0xff, 0xff, 0xa0, 0xbb, 0xff, 0xff, 0xa4, 0xbb, 0xff, 0xff, 0xa8, 0xbb, 0xff, 0xff, 0xac, 0xbb, 0xff, 0xff, 0xb0, 0xbb, 0xff, 0xff, 0xb4, 0xbb, 0xff, 0xff, 0xb8, 0xbb, 0xff, 0xff, 0xbc, 0xbb, 0xff, 0xff, 0xc0, 0xbb, 0xff, 0xff, 0xc4, 0xbb, 0xff, 0xff, 0xc8, 0xbb, 0xff, 0xff, 0x3e, 0xe6, 0xff, 0xff, 0x04, 0x00, 0x00, 0x00, 0xe0, 0x01, 0x00, 0x00, 0x7f, 0x0a, 0x01, 0x0b, 0xf8, 0xe6, 0xe4, 0xd9, 0x15, 0x10, 0x1d, 0x0c, 0x53, 0x4b, 0xea, 0x4d, 0x17, 0x21, 0xf5, 0xef, 0xae, 0x49, 0x13, 0x4a, 0x2b, 0xb3, 0xc4, 0x23, 0x13, 0x36, 0xc1, 0xfc, 0x2d, 0x65, 0x89, 0x34, 0x16, 0xc6, 0x3c, 0xe5, 0x07, 0xcc, 0x1e, 0xa7, 0x9f, 0x73, 0x12, 0xe9, 0x81, 0xdc, 0xb2, 0xa6, 0x35, 0xc4, 0x1c, 0x1b, 0xbb, 0x51, 0xe5, 0xa2, 0xd6, 0x0e, 0x03, 0xdf, 0xde, 0x2a, 0x81, 0xe4, 0xfc, 0x2e, 0x05, 0xc5, 0x98, 0x9c, 0x07, 0xe7, 0x43, 0x29, 0xbb, 0x6c, 0x3a, 0x11, 0x1f, 0x4f, 0x56, 0xd4, 0xa8, 0x06, 0xaa, 0xa9, 0xa4, 0xda, 0x1d, 0x83, 0xe5, 0xf8, 0x6c, 0x68, 0x6b, 0x81, 0x7b, 0x58, 0x3b, 0x47, 0x2f, 0x90, 0xde, 0xa5, 0xe0, 0x9c, 0x89, 0xe3, 0x0f, 0x45, 0x9e, 0x53, 0x69, 0x72, 0x02, 0x18, 0x4f, 0xc1, 0xc9, 0x59, 0xf5, 0x62, 0xd6, 0x4f, 0x40, 0x0f, 0xcd, 0x76, 0x72, 0xa1, 0x4b, 0xb5, 0xfe, 0x0b, 0x9b, 0x76, 0xa9, 0xf3, 0xe9, 0x5f, 0xca, 0x02, 0x45, 0x7f, 0xe3, 0xf5, 0x0c, 0x30, 0x94, 0xf8, 0x3b, 0x2f, 0xa7, 0x6d, 0x5f, 0xe0, 0x9b, 0xa5, 0x7f, 0x0c, 0x8c, 0x68, 0x0d, 0xc5, 0xee, 0x11, 0xc3, 0xfb, 0xf5, 0xc3, 0x10, 0x6b, 0x49, 0x69, 0x93, 0x9a, 0xe4, 0xf3, 0x63, 0x89, 0x7f, 0xaa, 0xdd, 0x2e, 0xbc, 0x5c, 0x30, 0xff, 0x44, 0xce, 0xe5, 0xa0, 0xd9, 0x3d, 0x4e, 0xc9, 0x6e, 0x2e, 0xcc, 0xeb, 0x28, 0xc3, 0x07, 0xd0, 0x5c, 0x4c, 0xd5, 0xa8, 0xd9, 0x93, 0xbc, 0x7f, 0x33, 0xb6, 0xd1, 0x3a, 0xb9, 0x2c, 0x46, 0x27, 0x52, 0x52, 0x52, 0x24, 0x95, 0x0f, 0xb6, 0xe9, 0x09, 0x07, 0x62, 0x16, 0x5f, 0xef, 0x9d, 0xcc, 0x58, 0x62, 0x2d, 0x5c, 0x98, 0xda, 0x31, 0xdb, 0x2a, 0xfb, 0xaa, 0x5f, 0xb0, 0x66, 0xa9, 0xf9, 0x5e, 0xa0, 0x61, 0x81, 0xb4, 0x53, 0xc4, 0x10, 0x6d, 0xa0, 0xb4, 0x23, 0xdc, 0x57, 0x97, 0xbd, 0xfa, 0x25, 0x70, 0x21, 0xd4, 0x04, 0x00, 0xa1, 0x5c, 0xe9, 0x3c, 0xbb, 0x0d, 0x3f, 0x45, 0x41, 0x09, 0x01, 0xcf, 0x40, 0xe1, 0x9b, 0xd7, 0x2b, 0x08, 0xbb, 0x7f, 0x3a, 0x0a, 0xe4, 0x67, 0x31, 0xbe, 0x64, 0x81, 0xd1, 0x21, 0x2d, 0xef, 0x61, 0x28, 0x26, 0x68, 0x31, 0x38, 0x51, 0xac, 0xd5, 0x24, 0x29, 0x1a, 0x29, 0x0f, 0x6c, 0xa9, 0x9f, 0xc7, 0x9a, 0x16, 0x72, 0x72, 0x3f, 0x53, 0xfe, 0x1a, 0x3c, 0x7f, 0x9a, 0x49, 0xca, 0x09, 0xa6, 0xd0, 0x1f, 0x02, 0x26, 0x70, 0x48, 0x68, 0xb2, 0x4f, 0x2f, 0x0d, 0xa8, 0x7a, 0xd5, 0xee, 0x88, 0x3d, 0xb4, 0x19, 0xc0, 0x53, 0xbb, 0x27, 0xb6, 0xbf, 0x28, 0x4e, 0xa8, 0x01, 0x10, 0xd7, 0x20, 0xad, 0x1f, 0xf8, 0xa7, 0x65, 0xaa, 0xfa, 0x40, 0xd1, 0xf8, 0x39, 0x0f, 0x27, 0x7f, 0x10, 0x69, 0xf7, 0xda, 0xda, 0xc6, 0xf5, 0xe4, 0x4c, 0x8a, 0x96, 0xbd, 0x4a, 0x03, 0xf2, 0xd3, 0x7f, 0xe1, 0xb5, 0xb7, 0x8d, 0x5b, 0x03, 0xfc, 0x2a, 0xa5, 0x5e, 0xd1, 0x37, 0xc0, 0x69, 0x64, 0x4a, 0x50, 0x5f, 0x11, 0x21, 0x99, 0x44, 0xac, 0x35, 0x37, 0x4b, 0xfc, 0x19, 0xf9, 0x11, 0x07, 0x81, 0x39, 0x9a, 0x9b, 0x3e, 0xe6, 0xa1, 0x9b, 0x1d, 0x76, 0x0a, 0x73, 0x81, 0x2c, 0x7a, 0xdd, 0xfa, 0x37, 0xc5, 0x59, 0xa0, 0x79, 0xc2, 0xe1, 0x3c, 0x66, 0x44, 0xcb, 0x53, 0xa2, 0x36, 0x89, 0x33, 0xa5, 0xe0, 0xd9, 0xe5, 0xbb, 0x27, 0x4f, 0x15, 0xb1, 0x2a, 0xe8, 0xff, 0xff, 0x04, 0x00, 0x00, 0x00, 0x40, 0x00, 0x00, 0x00, 0xc6, 0x00, 0x00, 0x00, 0x5c, 0x00, 0x00, 0x00, 0xb2, 0xff, 0xff, 0xff, 0x9c, 0x00, 0x00, 0x00, 0x41, 0x01, 0x00, 0x00, 0x74, 0x00, 0x00, 0x00, 0x7f, 0xff, 0xff, 0xff, 0xb4, 0x00, 0x00, 0x00, 0x41, 0x01, 0x00, 0x00, 0xc6, 0xff, 0xff, 0xff, 0x32, 0x00, 0x00, 0x00, 0x07, 0xff, 0xff, 0xff, 0x69, 0x00, 0x00, 0x00, 0x9a, 0x01, 0x00, 0x00, 0xf1, 0x00, 0x00, 0x00, 0xc1, 0x00, 0x00, 0x00, 0x76, 0xe8, 0xff, 0xff, 0x04, 0x00, 0x00, 0x00, 0x10, 0x00, 0x00, 0x00, 0x6b, 0x58, 0x7d, 0x5c, 0x67, 0x73, 0x7c, 0x7d, 0x5b, 0x5b, 0x72, 0x4e, 0x7f, 0x7d, 0x77, 0x7f, 0x92, 0xe8, 0xff, 0xff, 0x04, 0x00, 0x00, 0x00, 0x10, 0x00, 0x00, 0x00, 0x83, 0x83, 0xd2, 0x97, 0x97, 0xae, 0x0f, 0x00, 0x8b, 0xaa, 0x80, 0x8c, 0xf3, 0xdc, 0xf8, 0xf1, 0xae, 0xe8, 0xff, 0xff, 0x04, 0x00, 0x00, 0x00, 0x80, 0x07, 0x00, 0x00, 0xc0, 0xfa, 0xa2, 0x9a, 0xbc, 0x4e, 0x24, 0xc7, 0x8c, 0xe8, 0xe3, 0x37, 0xff, 0x89, 0x37, 0x10, 0xb1, 0xd7, 0x41, 0x2b, 0x1c, 0x8d, 0x9f, 0xe1, 0xa9, 0xa1, 0xae, 0x02, 0xa5, 0xb3, 0xde, 0xbd, 0x1a, 0x74, 0x69, 0x1e, 0xf6, 0x43, 0xd8, 0xf2, 0xa7, 0xa4, 0x0e, 0x4f, 0x3a, 0xcd, 0xaa, 0x7d, 0xe8, 0xf9, 0x76, 0xfc, 0x68, 0x12, 0x95, 0x5f, 0x01, 0x9b, 0x69, 0x4c, 0x90, 0x19, 0xab, 0x0c, 0xa0, 0xc3, 0xb7, 0xe0, 0x8c, 0xcd, 0xe2, 0xa0, 0x06, 0xe7, 0xaa, 0x70, 0x81, 0x71, 0xb9, 0xc4, 0x45, 0xc3, 0x1c, 0xe9, 0xf1, 0x01, 0x94, 0x11, 0xc0, 0xd5, 0xaf, 0xee, 0xc8, 0xb9, 0xe3, 0xb5, 0x39, 0xbe, 0x4d, 0x2c, 0x42, 0x06, 0x23, 0x26, 0x90, 0x47, 0x32, 0x3c, 0x4d, 0x0e, 0xe4, 0xc3, 0xd1, 0x3c, 0x57, 0xd3, 0xc2, 0x8b, 0x4f, 0x81, 0x08, 0x2e, 0x02, 0xce, 0xc7, 0xbc, 0x29, 0x1c, 0x9b, 0xbd, 0x66, 0x50, 0x0f, 0x3f, 0x47, 0x17, 0xeb, 0x17, 0x39, 0xba, 0xf0, 0x1e, 0xb5, 0x1b, 0xed, 0xfb, 0x4c, 0xe7, 0xb1, 0x3e, 0xdc, 0xd5, 0xe3, 0x14, 0x47, 0x4f, 0xf0, 0x1e, 0x6b, 0x11, 0xcc, 0x29, 0xeb, 0xac, 0x5d, 0x9e, 0xdd, 0x32, 0x1d, 0xb7, 0x2d, 0xe3, 0xa0, 0xf9, 0x1f, 0x1e, 0x3c, 0xb7, 0x38, 0xd7, 0x5c, 0x32, 0x57, 0xc4, 0x14, 0x3f, 0xfb, 0x4c, 0xfc, 0x2c, 0xf8, 0x38, 0x4b, 0x5c, 0xeb, 0x17, 0x6b, 0x81, 0xb1, 0x59, 0x96, 0x11, 0x35, 0x2c, 0x44, 0x41, 0x50, 0xe4, 0xcd, 0x06, 0x62, 0x3a, 0x59, 0xd0, 0x47, 0xc5, 0xcc, 0xa4, 0x2e, 0xa9, 0x08, 0xff, 0xd8, 0x7b, 0x37, 0xbf, 0xfb, 0xf3, 0x6a, 0x12, 0x0a, 0x3c, 0xd6, 0xb5, 0xf7, 0xa3, 0x1c, 0xed, 0xe7, 0x02, 0x3c, 0xf6, 0x4a, 0x4a, 0xa7, 0xd6, 0x05, 0xea, 0xdc, 0x55, 0xdd, 0x59, 0xee, 0xca, 0x0e, 0x41, 0xe5, 0x11, 0x56, 0x50, 0xd9, 0xcc, 0x24, 0xf8, 0x3a, 0xc8, 0xdd, 0x4e, 0x54, 0x39, 0x1b, 0xb6, 0x98, 0x63, 0xe7, 0x1f, 0xd8, 0xae, 0xf4, 0xb3, 0x08, 0xea, 0x46, 0xdc, 0xda, 0xb6, 0x0d, 0x67, 0x0d, 0x18, 0xd3, 0xe2, 0x10, 0x9e, 0xae, 0x99, 0xdb, 0x44, 0x19, 0xf7, 0x60, 0xb6, 0xe9, 0xb0, 0xfe, 0x4d, 0x28, 0xc2, 0xbd, 0x33, 0x4a, 0xc6, 0xfc, 0x21, 0x7f, 0xfc, 0xdb, 0xd5, 0x13, 0x54, 0x15, 0x21, 0x65, 0x35, 0x3e, 0xc9, 0xa5, 0xce, 0x81, 0xf7, 0xe9, 0xfd, 0xda, 0x05, 0xd7, 0x45, 0x70, 0xeb, 0xbb, 0xc6, 0x06, 0xd5, 0x16, 0x36, 0xc6, 0x14, 0x08, 0xd9, 0xf7, 0x1d, 0x6a, 0x33, 0xbc, 0x6e, 0x62, 0xea, 0x6c, 0x0c, 0x1c, 0x5b, 0xc5, 0xe6, 0xf4, 0x49, 0xf5, 0x0a, 0x32, 0xd5, 0x23, 0x25, 0x1a, 0xf8, 0xca, 0x2b, 0xf9, 0xb9, 0x1b, 0x13, 0x3f, 0x42, 0x44, 0xef, 0x9c, 0x67, 0xbb, 0xd3, 0x01, 0x19, 0x33, 0xf3, 0x8e, 0xd9, 0x14, 0xae, 0x62, 0xe2, 0x50, 0xd0, 0xe8, 0xf3, 0x32, 0xee, 0xbe, 0x28, 0xa0, 0xcc, 0x58, 0x1c, 0x7a, 0x67, 0xa1, 0x31, 0x99, 0x33, 0x90, 0x01, 0x30, 0x52, 0x1e, 0xf0, 0x37, 0xfe, 0x91, 0x7f, 0xab, 0x40, 0xb0, 0x59, 0x9c, 0xdf, 0xc8, 0x48, 0xe2, 0xd4, 0x70, 0x83, 0xe9, 0x6e, 0xcb, 0xd2, 0x1c, 0xc2, 0x42, 0x74, 0x81, 0xa9, 0x10, 0xa7, 0x20, 0x4a, 0x2c, 0x47, 0x44, 0xf9, 0x99, 0xdc, 0xd9, 0x63, 0xee, 0xf8, 0xbd, 0xe8, 0x59, 0x98, 0xe0, 0x92, 0x02, 0xcb, 0x53, 0xd7, 0x4a, 0x0d, 0x6e, 0xe6, 0xac, 0xf6, 0x89, 0x9e, 0x2d, 0x09, 0xc6, 0x1b, 0xa7, 0xcd, 0xce, 0x1e, 0x56, 0xbb, 0x28, 0xef, 0x2a, 0xbd, 0xda, 0x12, 0x34, 0x1b, 0xbe, 0xfe, 0x81, 0x4b, 0x58, 0x34, 0xd2, 0xd8, 0x4f, 0xe5, 0xf4, 0xd3, 0xd2, 0x2b, 0xb0, 0x09, 0x6d, 0x1f, 0x10, 0x38, 0xa0, 0x68, 0x37, 0xf9, 0x19, 0x28, 0xb4, 0xe1, 0xd5, 0xec, 0x46, 0xe3, 0x51, 0xa1, 0xea, 0xa0, 0x49, 0xb8, 0xa1, 0x50, 0xcd, 0x42, 0x21, 0x78, 0x95, 0x32, 0xef, 0xc8, 0x5d, 0xef, 0x43, 0xe8, 0x3d, 0x34, 0xad, 0x08, 0xc2, 0x48, 0xc8, 0xfb, 0xa1, 0xf5, 0xeb, 0x57, 0x48, 0x65, 0xaa, 0x03, 0xf3, 0x65, 0x16, 0xe2, 0xc5, 0xc7, 0xc7, 0xab, 0xaf, 0xbc, 0xe0, 0x01, 0x09, 0xc5, 0xef, 0x3c, 0xcf, 0xb4, 0x12, 0xdf, 0x54, 0xcb, 0x9c, 0x8b, 0x60, 0xa8, 0x20, 0x81, 0x2a, 0x39, 0xb6, 0xdd, 0x67, 0xf7, 0xb5, 0x2c, 0xc7, 0xef, 0x55, 0x24, 0x51, 0xaa, 0xa8, 0xfa, 0xcb, 0x2e, 0x38, 0x11, 0x54, 0xe3, 0xfc, 0x3a, 0xec, 0x47, 0x1c, 0x06, 0x5a, 0x91, 0xdd, 0xe7, 0xee, 0x22, 0xde, 0xa1, 0x0b, 0x07, 0x24, 0x60, 0x63, 0xa4, 0x05, 0xec, 0x1c, 0x31, 0xc8, 0xc6, 0xff, 0x90, 0x67, 0x03, 0x2f, 0x20, 0x99, 0xea, 0xa6, 0x3e, 0xe8, 0x75, 0x93, 0xeb, 0x26, 0x07, 0xac, 0xdb, 0xc5, 0xe5, 0x29, 0xf2, 0x22, 0x03, 0xf4, 0xfb, 0x67, 0xef, 0x29, 0xa8, 0xd3, 0xf6, 0x8f, 0x35, 0xc9, 0xde, 0x95, 0x3a, 0x81, 0x88, 0xe4, 0x2e, 0x2b, 0x12, 0xe4, 0xb2, 0xc6, 0xe4, 0x44, 0x6f, 0xc5, 0x3b, 0x2b, 0xb7, 0x5c, 0x04, 0x87, 0x75, 0x2c, 0x5a, 0xc3, 0x90, 0x91, 0xc6, 0xbf, 0x71, 0x58, 0xb5, 0xfc, 0xa9, 0x34, 0xb7, 0xf7, 0x9b, 0xb2, 0x5e, 0xf5, 0x4b, 0x13, 0xe3, 0xe0, 0xfc, 0x19, 0x29, 0xad, 0xb6, 0xf7, 0x1d, 0xc7, 0xec, 0xde, 0xb8, 0x1c, 0xb8, 0xef, 0x57, 0x4a, 0x9f, 0xab, 0x32, 0xe5, 0x2a, 0x91, 0xd4, 0x36, 0x81, 0x2c, 0xdd, 0xcf, 0x2e, 0xcd, 0x6e, 0xbe, 0xc7, 0x4d, 0x12, 0x59, 0xcf, 0xcd, 0xd3, 0xdb, 0x17, 0x46, 0xe8, 0xfe, 0x55, 0x8e, 0x40, 0xe0, 0xac, 0xea, 0xe0, 0xea, 0xa1, 0xff, 0x09, 0x27, 0xae, 0x18, 0xf0, 0xa7, 0x70, 0x9e, 0x5a, 0xea, 0xaf, 0x3a, 0x67, 0x51, 0x0a, 0xbc, 0x8e, 0x3c, 0x83, 0x09, 0xb4, 0x9e, 0x57, 0xa8, 0xc7, 0xaa, 0xee, 0xb0, 0xb3, 0x17, 0xd0, 0xd0, 0x68, 0x18, 0xb5, 0xf7, 0xd1, 0xd0, 0xc7, 0x51, 0x5f, 0xaf, 0xcc, 0xf7, 0x32, 0xb4, 0xd6, 0x12, 0xc3, 0xa1, 0x9a, 0xe3, 0x1d, 0x75, 0x65, 0x08, 0x39, 0x3e, 0x11, 0x55, 0xcd, 0x59, 0x4a, 0x6b, 0x7f, 0xe5, 0x44, 0xb6, 0xe7, 0x51, 0x23, 0x35, 0x2a, 0xff, 0x01, 0xe8, 0x3a, 0x2e, 0xe5, 0x39, 0x20, 0x0d, 0x62, 0x4f, 0xb9, 0x12, 0xbb, 0x0a, 0xa4, 0x3b, 0xc0, 0x0e, 0x22, 0x94, 0x93, 0x5e, 0xb7, 0x5e, 0xab, 0xf5, 0x97, 0x4a, 0x59, 0x29, 0xd2, 0x32, 0x0a, 0xdc, 0x33, 0x24, 0xd0, 0xe9, 0x39, 0x38, 0x5d, 0x30, 0x17, 0x74, 0xbb, 0x54, 0xe0, 0xf5, 0x5d, 0x3a, 0x12, 0xd6, 0x81, 0x09, 0x41, 0x1e, 0x15, 0x63, 0xb8, 0x35, 0xd9, 0x3b, 0x77, 0xab, 0x3b, 0x22, 0xdb, 0x58, 0x31, 0x54, 0xe0, 0x38, 0xcb, 0x06, 0xba, 0xbe, 0x39, 0xbe, 0x15, 0xc5, 0x1d, 0x1e, 0x11, 0x00, 0x2b, 0x2c, 0xa3, 0xdf, 0x4d, 0xf0, 0x08, 0x52, 0xb5, 0x22, 0x67, 0xbd, 0x48, 0xb6, 0xed, 0x58, 0xd8, 0xbc, 0x3e, 0x9c, 0xe2, 0x7d, 0xf4, 0xc9, 0xca, 0xe4, 0xcb, 0xa1, 0x1f, 0xab, 0xac, 0xed, 0x32, 0x54, 0x81, 0x02, 0xb7, 0x4d, 0xe5, 0xe8, 0x01, 0x0e, 0x53, 0x06, 0x12, 0xa8, 0x34, 0x52, 0xf0, 0x32, 0xd6, 0xe7, 0x49, 0x03, 0xda, 0x02, 0x39, 0xdd, 0x5f, 0xf5, 0xa7, 0x5d, 0xea, 0xba, 0xc5, 0x24, 0x61, 0x0c, 0x0c, 0x10, 0xeb, 0xf3, 0xfe, 0x0c, 0xbc, 0xa8, 0x0c, 0xe3, 0xb2, 0xb7, 0xf4, 0x5b, 0xdc, 0xa1, 0x25, 0x1c, 0xb5, 0x65, 0xbc, 0xe6, 0x96, 0xae, 0x64, 0x37, 0x32, 0xb5, 0x0f, 0xea, 0xdd, 0x97, 0xa6, 0xd5, 0xc8, 0x6d, 0xa1, 0xfa, 0x0c, 0x9b, 0xa0, 0x64, 0xd7, 0xb8, 0xc5, 0xfb, 0x8e, 0x94, 0x4a, 0x0b, 0x66, 0xec, 0x83, 0xb4, 0x39, 0xc9, 0x4d, 0x42, 0xc4, 0x75, 0x3f, 0x53, 0xc9, 0x0c, 0x30, 0x7e, 0x25, 0x0f, 0xf6, 0x32, 0xe5, 0xab, 0x81, 0x3d, 0xda, 0x14, 0x22, 0xfe, 0x13, 0xca, 0x92, 0xf4, 0x1b, 0xee, 0x1d, 0x43, 0xb4, 0x0d, 0x3c, 0x1c, 0xf9, 0x28, 0x22, 0x87, 0x07, 0xe6, 0x13, 0x34, 0xf3, 0x35, 0x01, 0xdc, 0x34, 0x96, 0xa2, 0x7d, 0xc0, 0xc9, 0x37, 0x42, 0x32, 0x3c, 0x3c, 0xe6, 0x41, 0x37, 0x0f, 0x3e, 0x14, 0x24, 0xc4, 0xd1, 0x2b, 0x4f, 0x8c, 0xc0, 0xb3, 0x43, 0xa0, 0xf9, 0xc7, 0xae, 0x16, 0xba, 0xba, 0x1e, 0xc2, 0x13, 0x48, 0x17, 0xd9, 0x51, 0x6b, 0x39, 0x1a, 0x4d, 0x1f, 0x1d, 0x2b, 0xf4, 0xdd, 0xa0, 0x1e, 0xf8, 0x2a, 0x52, 0xba, 0xb8, 0x27, 0x8f, 0xc0, 0x42, 0x20, 0xc1, 0x23, 0x4a, 0xcb, 0x38, 0x8b, 0xda, 0x47, 0x26, 0xc5, 0xbc, 0x2e, 0x0e, 0x3e, 0x16, 0x4a, 0xbe, 0xba, 0xbc, 0x81, 0xfa, 0x95, 0xad, 0xe2, 0x2a, 0x90, 0x0b, 0xdc, 0x55, 0xa0, 0xc1, 0xf5, 0x5c, 0x4d, 0x5d, 0x8a, 0xd1, 0xbb, 0x55, 0xbd, 0x28, 0x0a, 0x8e, 0x09, 0x51, 0x20, 0xc6, 0x48, 0x0d, 0xd3, 0x5c, 0xee, 0x07, 0x92, 0xe2, 0x16, 0xa7, 0xe8, 0x12, 0x32, 0x70, 0xa6, 0xd5, 0x14, 0x2e, 0xc9, 0xf7, 0x31, 0x4a, 0x06, 0x9a, 0xbf, 0x14, 0xeb, 0x04, 0xae, 0x39, 0x2a, 0xb5, 0x6e, 0x1e, 0x9a, 0x1e, 0xff, 0xad, 0x04, 0xf4, 0xf2, 0xb0, 0x4c, 0xc1, 0xbb, 0xdb, 0xc6, 0xbc, 0xe8, 0x12, 0xfc, 0xd6, 0x5a, 0x4c, 0x3e, 0x45, 0x81, 0x9a, 0x59, 0xd1, 0xec, 0x21, 0xb4, 0xee, 0xd3, 0xd9, 0xbe, 0x20, 0xb4, 0xf6, 0x3e, 0x38, 0xe6, 0xd4, 0x38, 0xb9, 0xf0, 0xed, 0xe3, 0xc1, 0x34, 0xae, 0xa5, 0x10, 0xef, 0x0d, 0x06, 0xa6, 0x7b, 0xd0, 0x15, 0x22, 0xb9, 0xf5, 0x5c, 0x4c, 0xd2, 0xae, 0x8d, 0x5a, 0x38, 0x27, 0xe3, 0x43, 0x7f, 0x61, 0x40, 0x14, 0xac, 0x50, 0xb7, 0x69, 0x87, 0x4b, 0xa1, 0xfd, 0xe3, 0x15, 0x0c, 0x55, 0x9e, 0x5b, 0x29, 0xa0, 0xd2, 0xff, 0x9a, 0x1d, 0x20, 0x4d, 0x1a, 0x11, 0x4b, 0xca, 0xf2, 0xb5, 0x3d, 0x26, 0xc8, 0xbf, 0xc0, 0xa4, 0x16, 0x7e, 0xf6, 0xa4, 0x6c, 0x50, 0xa6, 0xe4, 0xa5, 0x5f, 0xce, 0x1e, 0x98, 0x46, 0x63, 0x18, 0xda, 0x04, 0xaf, 0x08, 0xc5, 0xa0, 0x1c, 0x56, 0x04, 0x4f, 0xf7, 0x50, 0xa4, 0x7f, 0x26, 0xcb, 0xfa, 0x48, 0x4b, 0x7d, 0x6a, 0xc8, 0x32, 0xa9, 0x5f, 0xbd, 0xfd, 0x4b, 0xc8, 0xc3, 0xaf, 0x16, 0x55, 0x40, 0xf0, 0xcc, 0x1c, 0xdf, 0x3a, 0xa2, 0x1c, 0x0a, 0xd0, 0xdc, 0x2a, 0x2d, 0x30, 0x09, 0x0e, 0xaf, 0x08, 0xda, 0x48, 0xc0, 0xd7, 0x51, 0x5d, 0x0e, 0x52, 0x67, 0x1b, 0x57, 0x29, 0x07, 0x02, 0xc8, 0x25, 0xeb, 0xd1, 0x32, 0x06, 0xb3, 0x93, 0x34, 0x3c, 0x37, 0xd0, 0x2d, 0x98, 0xc5, 0xf8, 0xd1, 0x46, 0x19, 0xb2, 0xe7, 0x8c, 0xea, 0x55, 0x7f, 0xd6, 0x8e, 0xe7, 0x12, 0xb6, 0xaf, 0x07, 0x33, 0xbb, 0xb8, 0x2b, 0x50, 0xd4, 0x79, 0xff, 0x30, 0xe5, 0x08, 0x55, 0x59, 0x15, 0x51, 0x46, 0xbc, 0x6e, 0x06, 0x22, 0x02, 0x9e, 0xf8, 0xf0, 0x72, 0x31, 0xcd, 0xac, 0x43, 0x03, 0x9a, 0xbf, 0x7b, 0x99, 0xb4, 0x1d, 0xb2, 0x54, 0x04, 0x86, 0x2d, 0x47, 0xd4, 0xa4, 0x25, 0x2b, 0x31, 0xe6, 0xd7, 0x44, 0xde, 0xc8, 0xee, 0x21, 0xe5, 0xf8, 0xe1, 0xb9, 0x67, 0x01, 0xd9, 0x6e, 0xd1, 0xdf, 0x57, 0xd7, 0x0a, 0x28, 0x41, 0x4b, 0x52, 0xb6, 0xc6, 0x1d, 0xe0, 0xbf, 0x16, 0xbb, 0xea, 0x92, 0x9c, 0x47, 0xce, 0xd3, 0x0b, 0xa7, 0xeb, 0xe7, 0x81, 0x50, 0xd0, 0x4a, 0xda, 0x15, 0xe8, 0xca, 0xc0, 0xc7, 0x0f, 0x2c, 0x29, 0xe0, 0xc6, 0x11, 0x34, 0xc2, 0xf9, 0x1b, 0x55, 0xfe, 0xd6, 0xb7, 0x10, 0xce, 0x50, 0x3c, 0x26, 0x2d, 0x12, 0xc6, 0xc3, 0x10, 0x46, 0x2f, 0x04, 0x5d, 0x4f, 0xae, 0xbe, 0xc0, 0x1f, 0x1e, 0xf5, 0x0f, 0x57, 0xab, 0x88, 0xcb, 0x5d, 0xac, 0x4f, 0x3e, 0x62, 0x20, 0xa9, 0x02, 0x90, 0xa6, 0x06, 0xff, 0xb9, 0x2f, 0xfa, 0x3c, 0xa8, 0x8c, 0x3c, 0xfb, 0x26, 0xb0, 0x4b, 0x92, 0x35, 0x9e, 0xbd, 0xc4, 0xed, 0xd3, 0x2e, 0x1a, 0xe6, 0x9e, 0x81, 0x26, 0x0e, 0x54, 0x40, 0x9a, 0x27, 0x32, 0x4d, 0x17, 0x67, 0x90, 0x14, 0x9b, 0xcf, 0xa0, 0x42, 0xdd, 0xbd, 0x8b, 0x66, 0xfb, 0xbc, 0xf0, 0x55, 0x4b, 0x49, 0x9f, 0x84, 0x47, 0x0b, 0x8f, 0x37, 0xbb, 0xb8, 0x3f, 0x15, 0x9e, 0xb7, 0x06, 0x53, 0x02, 0xb7, 0x48, 0xe0, 0x2f, 0x29, 0x6c, 0xad, 0x0d, 0x0f, 0xd8, 0x50, 0x30, 0x92, 0x1d, 0xc7, 0xb6, 0xaf, 0xb0, 0x03, 0xb9, 0x37, 0xf5, 0xd0, 0x11, 0x30, 0xe2, 0x8e, 0x33, 0x19, 0x03, 0x81, 0x14, 0xb5, 0xd0, 0x1b, 0x91, 0xfb, 0xc9, 0xf7, 0xbc, 0xe5, 0x96, 0x08, 0xf4, 0x1f, 0x17, 0xcf, 0xdb, 0xd9, 0x2a, 0x0b, 0x0c, 0x36, 0x39, 0x8e, 0xba, 0xbb, 0xd4, 0xbf, 0x2a, 0xde, 0x59, 0x38, 0xb7, 0xea, 0x3d, 0xfb, 0x00, 0x54, 0x35, 0x21, 0xa7, 0x23, 0xc8, 0x12, 0xdd, 0xce, 0x36, 0x3f, 0xe2, 0x57, 0xff, 0x11, 0xa3, 0x4e, 0xeb, 0xec, 0x48, 0xed, 0x56, 0xbd, 0x05, 0xf2, 0x15, 0x3f, 0x21, 0x72, 0xd4, 0xb0, 0x2d, 0x57, 0x03, 0x2e, 0xc7, 0xd5, 0xbe, 0x2b, 0x0f, 0xb6, 0xd9, 0x5b, 0xf5, 0x3b, 0xa6, 0xc8, 0xa2, 0xde, 0x62, 0xbf, 0x20, 0x01, 0xf5, 0x0c, 0x1f, 0xc2, 0x18, 0xde, 0x98, 0xe6, 0xf9, 0x3a, 0xc5, 0x14, 0x68, 0x5f, 0x0b, 0x30, 0x59, 0x03, 0x2a, 0xfb, 0xc2, 0x59, 0x3a, 0x73, 0xa8, 0xe8, 0x45, 0xff, 0x07, 0xc3, 0x9d, 0x23, 0x7f, 0x82, 0x1b, 0x00, 0x2f, 0x2d, 0x8d, 0xbb, 0x4e, 0x0f, 0xf6, 0x04, 0xed, 0x4e, 0x2f, 0x09, 0x4f, 0x08, 0xc2, 0xe0, 0x89, 0xc7, 0x59, 0xc4, 0xf3, 0x27, 0x0d, 0xb9, 0xc9, 0x24, 0x17, 0x91, 0x27, 0x7e, 0x69, 0xba, 0x08, 0xda, 0x5b, 0xf3, 0xe9, 0x4e, 0xe9, 0xcc, 0x9d, 0xff, 0xf7, 0x9f, 0x57, 0x1b, 0x95, 0xcd, 0xaf, 0x40, 0x68, 0x1d, 0xfd, 0x3d, 0x0d, 0xf5, 0xf9, 0x58, 0x2a, 0x36, 0x81, 0x00, 0xaf, 0x22, 0xc4, 0x5a, 0xf3, 0xcd, 0xe0, 0x00, 0x0b, 0x44, 0xc3, 0xfb, 0x4e, 0xeb, 0x32, 0x5f, 0x0b, 0x98, 0xf4, 0xed, 0x28, 0x3a, 0xf0, 0xff, 0xff, 0x04, 0x00, 0x00, 0x00, 0x60, 0x00, 0x00, 0x00, 0xdd, 0xfe, 0xff, 0xff, 0xa3, 0xfe, 0xff, 0xff, 0xac, 0x00, 0x00, 0x00, 0x43, 0xff, 0xff, 0xff, 0x67, 0x00, 0x00, 0x00, 0x74, 0xff, 0xff, 0xff, 0x6e, 0x01, 0x00, 0x00, 0x89, 0x00, 0x00, 0x00, 0xe4, 0xff, 0xff, 0xff, 0xe0, 0x01, 0x00, 0x00, 0x8c, 0x00, 0x00, 0x00, 0x4e, 0x01, 0x00, 0x00, 0x43, 0x03, 0x00, 0x00, 0x02, 0x03, 0x00, 0x00, 0x64, 0xfe, 0xff, 0xff, 0x39, 0x02, 0x00, 0x00, 0x4f, 0xfd, 0xff, 0xff, 0x1a, 0xfd, 0xff, 0xff, 0x2b, 0xfe, 0xff, 0xff, 0x6d, 0x02, 0x00, 0x00, 0xb6, 0xfd, 0xff, 0xff, 0xfe, 0xff, 0xff, 0xff, 0xa3, 0xfd, 0xff, 0xff, 0x70, 0x03, 0x00, 0x00, 0xa6, 0xf0, 0xff, 0xff, 0x04, 0x00, 0x00, 0x00, 0x18, 0x00, 0x00, 0x00, 0x78, 0x55, 0x39, 0x51, 0x55, 0x73, 0x71, 0x5e, 0x7f, 0x6c, 0x5a, 0x30, 0x73, 0x4b, 0x40, 0x6e, 0x60, 0x4c, 0x5f, 0x7d, 0x66, 0x74, 0x4c, 0x6b, 0xca, 0xf0, 0xff, 0xff, 0x04, 0x00, 0x00, 0x00, 0x18, 0x00, 0x00, 0x00, 0xa5, 0xc2, 0x94, 0xc4, 0xd4, 0xf2, 0xdc, 0x9d, 0xbb, 0x85, 0xd5, 0x80, 0x98, 0xa3, 0xc8, 0xcf, 0xcd, 0xb3, 0xd3, 0xa3, 0x9b, 0xd9, 0xd8, 0xb1, 0xee, 0xf0, 0xff, 0xff, 0x04, 0x00, 0x00, 0x00, 0x00, 0x09, 0x00, 0x00, 0xce, 0x3d, 0xed, 0xcf, 0x48, 0x29, 0xc9, 0x18, 0xa4, 0x54, 0x23, 0x4d, 0xa5, 0x05, 0x6f, 0x19, 0x13, 0xc0, 0x03, 0x32, 0xbf, 0x66, 0x24, 0x9a, 0x66, 0xad, 0x2a, 0xae, 0x85, 0x99, 0x46, 0xc0, 0x23, 0x1c, 0xec, 0xb0, 0xd1, 0xdc, 0x0d, 0x5b, 0x44, 0x2c, 0xd9, 0xc4, 0xed, 0x3a, 0xab, 0xb6, 0xdc, 0x81, 0xb1, 0x58, 0x3d, 0x33, 0x18, 0x98, 0xc1, 0x4b, 0xde, 0x06, 0xf9, 0x47, 0x20, 0xb4, 0x5d, 0x1d, 0x01, 0xe3, 0x78, 0xf6, 0xf9, 0x2e, 0x98, 0x81, 0x5b, 0x72, 0x96, 0x36, 0xe5, 0x7f, 0x8c, 0xe2, 0x50, 0xb4, 0x22, 0xb2, 0xf4, 0x65, 0xc4, 0xa1, 0x0a, 0x49, 0x93, 0xe5, 0xbe, 0xb5, 0xde, 0xae, 0xb7, 0x0b, 0xa1, 0x77, 0x0e, 0x75, 0x0c, 0xdf, 0x04, 0x15, 0x0a, 0xac, 0x4f, 0xce, 0xe4, 0xb2, 0x41, 0x1c, 0x4b, 0xd8, 0xca, 0xd9, 0xaf, 0xbb, 0x63, 0xd5, 0xeb, 0x6c, 0x42, 0xe4, 0xea, 0x02, 0x9e, 0xd4, 0xee, 0x92, 0x1c, 0x48, 0x34, 0x40, 0xa2, 0x70, 0x2d, 0x2d, 0xa3, 0x3e, 0x88, 0x3b, 0x65, 0x05, 0x18, 0xd4, 0xfc, 0x0a, 0xc7, 0xe5, 0x6a, 0xff, 0xa8, 0xd7, 0x3d, 0x53, 0x18, 0x3c, 0x59, 0xf8, 0x41, 0x72, 0x2a, 0xb6, 0xb2, 0xd9, 0xdc, 0xf2, 0x56, 0x6f, 0x74, 0x2b, 0x8a, 0xfb, 0xd2, 0xfb, 0xce, 0x0e, 0x7f, 0x2a, 0x36, 0x42, 0x35, 0x57, 0xc0, 0x1d, 0x3e, 0x11, 0xda, 0x86, 0x49, 0x27, 0xf7, 0x58, 0x65, 0x66, 0xb6, 0x45, 0xe7, 0xdf, 0xf2, 0xa4, 0xf2, 0xc3, 0x2e, 0xe1, 0xed, 0x73, 0x76, 0x17, 0x47, 0xf4, 0x54, 0xd8, 0xcf, 0xe9, 0x1c, 0x0a, 0x60, 0x2c, 0x19, 0xb3, 0x1c, 0xc5, 0x36, 0x43, 0x88, 0xb3, 0xa4, 0x1e, 0x3e, 0x1f, 0x0c, 0xdd, 0xd1, 0x1f, 0xe1, 0xd1, 0x4b, 0x26, 0x9f, 0xce, 0x3c, 0xc5, 0x4f, 0x21, 0x08, 0x54, 0xfc, 0x2e, 0x61, 0xdf, 0x59, 0x69, 0x31, 0x87, 0x6d, 0x1b, 0x3e, 0xb7, 0xa5, 0x43, 0xc0, 0x81, 0x11, 0x58, 0x9c, 0xcc, 0xc0, 0x14, 0x85, 0x38, 0x32, 0xd3, 0xdb, 0xc9, 0x00, 0xec, 0x6a, 0xcc, 0xa0, 0x2f, 0xce, 0x1a, 0x96, 0xcf, 0x52, 0x3d, 0x4c, 0x35, 0x06, 0x31, 0xae, 0xa3, 0xad, 0x53, 0x4a, 0x0c, 0xec, 0x59, 0xf9, 0x4c, 0xcb, 0xb2, 0xeb, 0x2f, 0x03, 0x07, 0xcb, 0xc7, 0xce, 0xec, 0xed, 0x0b, 0x1d, 0xb0, 0xad, 0x81, 0x54, 0xc2, 0x69, 0xdd, 0x9c, 0x38, 0x0c, 0x3d, 0xb0, 0xf5, 0xcd, 0x17, 0x61, 0xda, 0x4a, 0x1a, 0xb0, 0xcf, 0xae, 0xd1, 0xd1, 0x21, 0xfe, 0x02, 0x1d, 0xbf, 0x3a, 0xa2, 0x2c, 0x4b, 0xed, 0x99, 0x1a, 0xd4, 0x45, 0x54, 0xf4, 0xe2, 0x6e, 0x2e, 0x5d, 0x4b, 0x70, 0x54, 0xab, 0x97, 0x0e, 0x30, 0x13, 0xff, 0x3e, 0x13, 0xd0, 0x30, 0xbf, 0x52, 0xb4, 0x81, 0x50, 0xce, 0xa5, 0x34, 0x09, 0xcd, 0x33, 0x35, 0x77, 0x75, 0xcd, 0x47, 0x32, 0x32, 0x11, 0x33, 0x48, 0x40, 0x4f, 0x2c, 0x55, 0x19, 0x53, 0xaa, 0xb4, 0x1f, 0x2a, 0xc4, 0xc1, 0x06, 0xee, 0x64, 0x5c, 0xe8, 0x07, 0x04, 0x35, 0xcd, 0xe3, 0xc5, 0x19, 0x12, 0xbb, 0xa1, 0x2b, 0xbd, 0xe5, 0xf1, 0xc9, 0x27, 0xab, 0xfd, 0x92, 0x87, 0xa1, 0x00, 0xe7, 0x07, 0x98, 0x47, 0x9f, 0x25, 0x28, 0x4f, 0xf9, 0x4a, 0x1a, 0x8f, 0xdd, 0x4d, 0xcb, 0x0b, 0x18, 0xb3, 0x29, 0xe4, 0x81, 0x84, 0xbd, 0x9e, 0x36, 0x91, 0xa5, 0x28, 0x10, 0xe5, 0x1a, 0x2c, 0x65, 0xc6, 0x06, 0x40, 0x9a, 0x25, 0x0f, 0x24, 0xc3, 0xf1, 0x32, 0xd3, 0xa8, 0xb3, 0x17, 0x2b, 0x0f, 0x95, 0x9a, 0x4f, 0x08, 0xb2, 0x72, 0x2d, 0xc5, 0xc4, 0xe7, 0x8f, 0x59, 0x90, 0x3d, 0x5d, 0xcd, 0x97, 0x41, 0x49, 0x57, 0xa2, 0x9d, 0xca, 0x1f, 0xac, 0xbd, 0xff, 0xbf, 0x4f, 0xa2, 0x10, 0xcc, 0x9f, 0x74, 0xdd, 0xc3, 0xf6, 0xc3, 0x78, 0xcb, 0xe4, 0x3a, 0xcc, 0x26, 0x2a, 0xa8, 0x90, 0x55, 0x1a, 0x68, 0x02, 0x1b, 0xd1, 0x23, 0xff, 0x99, 0x9a, 0x00, 0x23, 0x11, 0x39, 0xf3, 0x6b, 0xb6, 0x46, 0xc4, 0x81, 0x50, 0x34, 0x94, 0x3c, 0xbd, 0x92, 0x51, 0xc0, 0x43, 0x36, 0xe2, 0xd7, 0x3c, 0x5e, 0xa6, 0x50, 0xb5, 0xcd, 0xc1, 0x31, 0x19, 0x6c, 0xaa, 0xe9, 0xc0, 0xbf, 0x16, 0x48, 0x03, 0xe7, 0xcd, 0x3f, 0xf4, 0x49, 0xc4, 0x00, 0x20, 0xcb, 0x7e, 0x85, 0xbf, 0x4c, 0x91, 0xd7, 0x11, 0x8a, 0x99, 0xd2, 0x21, 0xdb, 0xd7, 0x31, 0x73, 0xcb, 0xd5, 0x49, 0xcf, 0xd2, 0x7f, 0xce, 0x09, 0xa8, 0x32, 0xd9, 0xde, 0x6e, 0x42, 0x3c, 0xd2, 0x38, 0xe6, 0x45, 0x99, 0xd3, 0xe8, 0x01, 0x29, 0x9b, 0xc3, 0xb0, 0x84, 0x1e, 0x3b, 0x2a, 0xe3, 0x46, 0x03, 0x17, 0x1b, 0xb9, 0xcb, 0x26, 0x56, 0x9c, 0x84, 0x38, 0x3e, 0x17, 0x3c, 0x07, 0x3d, 0xb9, 0xc8, 0x9a, 0x28, 0xe5, 0xa6, 0x5c, 0xca, 0x72, 0x3e, 0xb2, 0x0c, 0x58, 0x50, 0x06, 0xef, 0x17, 0x9a, 0x5c, 0xce, 0xeb, 0x59, 0x10, 0x42, 0x52, 0x01, 0xfd, 0x07, 0x34, 0x1e, 0x52, 0x3e, 0x4d, 0x26, 0xc6, 0xc9, 0xc3, 0x69, 0x08, 0x95, 0x0d, 0xd9, 0x45, 0x5d, 0x7b, 0x1b, 0x6c, 0x08, 0x37, 0xe8, 0x0e, 0x6e, 0x05, 0xef, 0xe7, 0x55, 0x7f, 0xc3, 0x40, 0xe1, 0xdc, 0x21, 0xb5, 0x31, 0xe9, 0xcb, 0x19, 0x11, 0x59, 0xd1, 0xc4, 0x11, 0x60, 0x18, 0x18, 0x1b, 0x01, 0x14, 0x3f, 0x85, 0x05, 0x49, 0x38, 0x38, 0x37, 0x0f, 0x60, 0xd2, 0xd4, 0x7f, 0xdd, 0x05, 0xf2, 0xab, 0xe2, 0x90, 0x16, 0xd7, 0xd2, 0x28, 0xf3, 0x30, 0x0c, 0x98, 0xe3, 0xc5, 0xe1, 0x20, 0xe8, 0x3d, 0x65, 0xba, 0x0a, 0x04, 0xa5, 0xef, 0x9a, 0xb8, 0x56, 0x43, 0x53, 0x7e, 0xd2, 0x9a, 0xe5, 0x30, 0xe3, 0x05, 0x37, 0x42, 0xc0, 0x47, 0xac, 0x8c, 0xe7, 0x02, 0x25, 0x56, 0x18, 0xa9, 0xa7, 0xc1, 0x11, 0x2f, 0x35, 0x3d, 0x4a, 0x89, 0x57, 0xdb, 0xd2, 0x6a, 0xd2, 0x32, 0x9a, 0x30, 0x0d, 0x2c, 0x2b, 0x4c, 0x5d, 0x1a, 0x5c, 0x4d, 0x04, 0x7f, 0x1f, 0x03, 0x3c, 0x35, 0x06, 0x96, 0xb7, 0xe3, 0xe3, 0xc3, 0x0b, 0x27, 0xfb, 0x25, 0x8c, 0x47, 0x6f, 0x7a, 0x3d, 0xfd, 0x97, 0xd1, 0xc6, 0xd8, 0x93, 0xe7, 0xd4, 0x16, 0xb5, 0x9b, 0x0a, 0x41, 0x00, 0x4b, 0xc9, 0x2c, 0xb5, 0xe4, 0x0e, 0xbe, 0x3a, 0x3c, 0x3b, 0x64, 0x5e, 0xb2, 0xd3, 0x5d, 0x30, 0xbf, 0x00, 0x4e, 0x51, 0x39, 0x06, 0x27, 0x17, 0xaf, 0x26, 0xfe, 0xfc, 0xc5, 0x79, 0x7e, 0xda, 0xa8, 0x1f, 0x1a, 0x9a, 0x85, 0x1b, 0xf4, 0x3f, 0x9f, 0x2e, 0xe4, 0x67, 0x1d, 0xa0, 0xba, 0xbd, 0xdc, 0xcc, 0xfb, 0x4f, 0x4d, 0xdd, 0xd7, 0x1f, 0x89, 0x4b, 0xf3, 0xfb, 0xfe, 0xfd, 0xca, 0x27, 0x0a, 0x44, 0x54, 0x66, 0xa2, 0xf1, 0xd5, 0xb0, 0xcd, 0x07, 0x39, 0x2e, 0xbb, 0x1f, 0xb6, 0xec, 0x15, 0x29, 0x7f, 0x95, 0x1b, 0x5b, 0x96, 0xef, 0xe1, 0xe4, 0x1d, 0xb0, 0x0d, 0xb0, 0x37, 0x8b, 0x06, 0x20, 0xf3, 0xd1, 0xa5, 0xdc, 0x36, 0xca, 0x4f, 0xbf, 0x5a, 0xe9, 0x20, 0x54, 0x19, 0x3d, 0x52, 0x0e, 0x7f, 0x7d, 0x07, 0xcd, 0x24, 0xd8, 0xd7, 0xe7, 0xa9, 0x37, 0xd2, 0x0e, 0x1e, 0x69, 0xbe, 0x40, 0x63, 0xb8, 0x9e, 0x05, 0x97, 0x06, 0xf8, 0x71, 0xff, 0x01, 0xe4, 0x8e, 0xe6, 0x3f, 0xcd, 0x65, 0xec, 0xc9, 0xaf, 0x31, 0x0d, 0x78, 0x8e, 0xb5, 0x40, 0xd9, 0xd1, 0x1b, 0x0d, 0x2d, 0xf5, 0x0e, 0xe0, 0xac, 0xc0, 0xe2, 0x6b, 0x1a, 0x43, 0x4b, 0xa5, 0xac, 0xc2, 0x5f, 0xd9, 0xe6, 0xf7, 0xed, 0xf9, 0x1d, 0xf2, 0x79, 0xd4, 0x45, 0xc2, 0x91, 0x00, 0xbd, 0x0d, 0xbd, 0x67, 0xb1, 0x77, 0x4d, 0xda, 0xf2, 0xd3, 0xd9, 0x59, 0x63, 0xfb, 0xc8, 0xbf, 0x0e, 0x97, 0xc4, 0xfa, 0xf4, 0x44, 0x0f, 0x46, 0x5f, 0x29, 0x82, 0xd9, 0x2b, 0x1f, 0x5b, 0x2f, 0xfc, 0x05, 0x77, 0x3e, 0x0f, 0x03, 0x81, 0xc2, 0xff, 0x53, 0xa9, 0xde, 0x56, 0x38, 0xeb, 0x13, 0xb2, 0xdd, 0x75, 0x14, 0x42, 0xe1, 0xfe, 0x5e, 0xe7, 0x72, 0xf9, 0x20, 0x04, 0x1a, 0xc3, 0xa5, 0xfb, 0x4c, 0x41, 0x42, 0xc1, 0x0d, 0xde, 0x4c, 0x63, 0x51, 0x39, 0xa0, 0x1d, 0xe1, 0xd2, 0x2c, 0xda, 0xde, 0xca, 0x9e, 0xe4, 0x3f, 0xb2, 0x1e, 0x24, 0xf5, 0xb3, 0xa2, 0x6d, 0xa8, 0x1a, 0x27, 0x37, 0xd6, 0x3a, 0xde, 0x06, 0x5b, 0x01, 0xd6, 0x8c, 0x1b, 0xd5, 0xd4, 0xdb, 0xf3, 0x04, 0x47, 0x7f, 0x96, 0x6b, 0x39, 0x93, 0x7b, 0x32, 0x2e, 0xe6, 0x18, 0xf0, 0x5a, 0x70, 0x17, 0x5b, 0x24, 0xcd, 0xd8, 0x2f, 0xac, 0x76, 0x3a, 0x1b, 0x04, 0x4e, 0xc2, 0xb9, 0x4c, 0x28, 0x7a, 0x07, 0xee, 0x35, 0xe2, 0x30, 0x09, 0xde, 0x45, 0x4d, 0x66, 0x81, 0xcb, 0x25, 0x3e, 0xe5, 0xac, 0xdd, 0x28, 0x60, 0x16, 0x79, 0x5d, 0x3f, 0xec, 0x0b, 0x34, 0xd7, 0x6b, 0xe5, 0xd7, 0xd5, 0xd7, 0xdc, 0x08, 0x1d, 0x5a, 0xb2, 0x92, 0x99, 0xf9, 0x94, 0xf3, 0x4c, 0x21, 0x11, 0xb4, 0xde, 0x3b, 0xf4, 0x11, 0xd7, 0xe6, 0x62, 0xda, 0xbf, 0xd6, 0xbf, 0xf2, 0x0a, 0xac, 0xdc, 0x43, 0x2d, 0x5a, 0x03, 0x44, 0x10, 0xd4, 0x2a, 0x9d, 0x0f, 0xb3, 0x5a, 0x11, 0xd4, 0x25, 0x14, 0x3e, 0x21, 0x55, 0xff, 0xb5, 0x74, 0xa7, 0xd2, 0x2c, 0xb3, 0xf6, 0x10, 0x30, 0x51, 0x5a, 0x3f, 0x99, 0x25, 0x0b, 0xef, 0xf9, 0xcc, 0x05, 0xbb, 0xcf, 0xed, 0xf1, 0x35, 0x2b, 0x7f, 0x45, 0xef, 0x69, 0xd0, 0xf1, 0xb2, 0x66, 0x41, 0x94, 0xaf, 0x75, 0xd6, 0xe7, 0x23, 0xb9, 0x0b, 0xff, 0xca, 0x1f, 0xfc, 0x3c, 0xfa, 0x36, 0x33, 0xe4, 0x2b, 0xfe, 0x3a, 0x49, 0x13, 0x5b, 0x6d, 0x49, 0x3a, 0xf4, 0x29, 0xae, 0x3d, 0x94, 0x1d, 0x2a, 0x4c, 0xc6, 0x1d, 0xec, 0xb6, 0x6b, 0xfd, 0x54, 0x10, 0x9c, 0x32, 0x76, 0x98, 0x97, 0x5c, 0x94, 0x16, 0x50, 0x8c, 0x2d, 0x8c, 0x81, 0x63, 0x3a, 0xc8, 0x38, 0x2e, 0xea, 0xd5, 0x02, 0x40, 0x44, 0xc9, 0x8a, 0x2f, 0x68, 0xbd, 0x9f, 0xb7, 0x30, 0x2c, 0x07, 0x59, 0x45, 0x08, 0x32, 0x53, 0x07, 0xee, 0x70, 0x17, 0x50, 0xa0, 0x31, 0xba, 0x2d, 0x3c, 0xc9, 0x79, 0x2e, 0xfc, 0xfa, 0xdb, 0x37, 0x1f, 0x03, 0x4d, 0x1d, 0x03, 0xa3, 0x26, 0xc3, 0x9c, 0x4b, 0x6e, 0x43, 0xa0, 0xcc, 0xb0, 0x9d, 0x65, 0x97, 0x6e, 0x7a, 0xd9, 0xce, 0x40, 0x2e, 0xe6, 0xd2, 0xa1, 0xff, 0xb0, 0xea, 0xd9, 0x8a, 0x15, 0x6d, 0xe2, 0x15, 0x2f, 0x7f, 0x12, 0x3e, 0x6b, 0xa8, 0x5a, 0xd9, 0x35, 0x2b, 0xb5, 0x5b, 0x58, 0xae, 0x37, 0x6a, 0x35, 0x8e, 0xa0, 0x00, 0xfd, 0x3b, 0x20, 0x05, 0x51, 0x9f, 0xbc, 0x57, 0x71, 0xd5, 0xa3, 0xdf, 0xb3, 0xd4, 0x5e, 0xe4, 0x7d, 0xe3, 0x23, 0xe2, 0x05, 0x28, 0x2a, 0xd2, 0x42, 0xe8, 0x3a, 0x17, 0xc4, 0x26, 0x26, 0x5e, 0xd8, 0x55, 0xa1, 0xc1, 0x18, 0x44, 0x64, 0xf7, 0xd5, 0x03, 0x04, 0xc6, 0xc6, 0xd4, 0x9c, 0x7c, 0xd7, 0x4f, 0x18, 0xe5, 0x10, 0xa6, 0x54, 0xfd, 0x66, 0x37, 0x81, 0x2b, 0x24, 0x2a, 0x23, 0xaa, 0x2f, 0xbe, 0xf0, 0xd8, 0x0e, 0xa3, 0x55, 0xa1, 0xd9, 0xf8, 0xfb, 0x20, 0xf1, 0xb9, 0x41, 0x04, 0x00, 0x67, 0x5c, 0xd6, 0xa1, 0xc9, 0x4e, 0xb8, 0xac, 0x50, 0x0c, 0xc8, 0xeb, 0x81, 0xc6, 0xb4, 0xcf, 0x4f, 0xac, 0x71, 0xbd, 0xbc, 0x25, 0x59, 0xab, 0x6f, 0x34, 0xea, 0xfa, 0xae, 0x13, 0x98, 0xef, 0xab, 0x2b, 0x2f, 0x0b, 0xa1, 0x28, 0x1c, 0xab, 0xba, 0x2c, 0xf6, 0xca, 0x3c, 0x9d, 0x53, 0x5d, 0x36, 0x11, 0x13, 0x97, 0x3e, 0xb1, 0x0d, 0x0d, 0x22, 0x1a, 0xfd, 0x4f, 0x26, 0xb7, 0xfe, 0x26, 0xbb, 0x0b, 0x4b, 0x21, 0x53, 0x00, 0xa4, 0x43, 0x0d, 0x04, 0x50, 0x06, 0xdd, 0xf1, 0x48, 0x2c, 0xa7, 0x25, 0xd1, 0x03, 0x30, 0xba, 0x64, 0x60, 0x81, 0xbf, 0xda, 0xe4, 0xde, 0xd2, 0x09, 0xb6, 0xf1, 0x40, 0xa3, 0x42, 0x33, 0xff, 0xdd, 0xf2, 0x0b, 0x15, 0x17, 0x37, 0xfa, 0x87, 0x08, 0xf7, 0xf0, 0xd6, 0x41, 0xa3, 0x4c, 0x1d, 0x09, 0xaa, 0x20, 0xb3, 0xf9, 0x71, 0x8f, 0xec, 0xbb, 0xe5, 0x3e, 0x36, 0x2c, 0x0d, 0x48, 0x95, 0xf1, 0xaf, 0x98, 0x4d, 0xc3, 0x10, 0xfa, 0x38, 0xc1, 0x13, 0x4c, 0xfc, 0xf5, 0xf9, 0xde, 0xbf, 0x3d, 0x3f, 0xd1, 0x24, 0x1f, 0x4a, 0x53, 0xda, 0x0f, 0x10, 0x0d, 0x84, 0x42, 0x09, 0x38, 0xa9, 0x59, 0x2a, 0xde, 0x03, 0x2e, 0xa1, 0xc0, 0xe1, 0xd4, 0x78, 0x1e, 0x19, 0x27, 0x27, 0x9c, 0x34, 0x7f, 0x3e, 0x91, 0xe5, 0xc6, 0xb9, 0xc0, 0xd5, 0x71, 0xbe, 0xba, 0x16, 0x5e, 0xc4, 0x92, 0xa8, 0x3a, 0x50, 0xe2, 0xcd, 0x5d, 0xb2, 0x48, 0xe3, 0xf3, 0xbb, 0x05, 0x0f, 0xf4, 0xef, 0x33, 0xd6, 0xe7, 0x46, 0xa9, 0xa9, 0xfd, 0x47, 0x4d, 0x57, 0x34, 0x48, 0xef, 0x41, 0xe4, 0xf3, 0xb7, 0x12, 0xc2, 0x1a, 0xe6, 0xcc, 0xc0, 0x27, 0xe0, 0x51, 0xc0, 0xa2, 0xad, 0x5b, 0xd2, 0x28, 0x3a, 0x56, 0xf3, 0x67, 0x07, 0x68, 0xde, 0xfa, 0xe6, 0x81, 0x38, 0x22, 0x99, 0xd5, 0xf4, 0xaf, 0x95, 0xe1, 0xe1, 0x11, 0xd8, 0x96, 0xa0, 0x25, 0xba, 0x7b, 0x07, 0xc2, 0x61, 0x51, 0xca, 0xd3, 0x0e, 0x25, 0xe3, 0xfd, 0x00, 0x33, 0x02, 0x47, 0x16, 0xbe, 0x34, 0xd6, 0x1f, 0x8e, 0xc1, 0x41, 0x4a, 0x66, 0x63, 0x76, 0x5d, 0xa7, 0x6d, 0x7c, 0xaa, 0xa6, 0x5c, 0xbf, 0xe1, 0xcf, 0xad, 0xef, 0x97, 0xb6, 0x0f, 0xb5, 0x22, 0xd0, 0x2e, 0xd0, 0xe1, 0x71, 0xeb, 0x36, 0xc7, 0x1e, 0xb6, 0xd6, 0x4a, 0x81, 0x50, 0xb9, 0x06, 0xbe, 0xe1, 0x64, 0xa1, 0x13, 0x66, 0x05, 0x67, 0xc6, 0xb4, 0x38, 0xaa, 0xe7, 0x76, 0x8a, 0x9a, 0xac, 0xde, 0x1f, 0x2e, 0x9c, 0xf1, 0xca, 0xc2, 0xc9, 0x29, 0x16, 0xe2, 0xbf, 0x1c, 0x47, 0xd6, 0x34, 0x02, 0xc7, 0x88, 0x9d, 0xef, 0xb1, 0xd6, 0xc5, 0x42, 0xc0, 0xd0, 0xb4, 0xfc, 0x53, 0x39, 0x39, 0xfc, 0x45, 0x95, 0xbc, 0x34, 0xaa, 0x16, 0x60, 0xad, 0xf1, 0x11, 0xde, 0x6a, 0x0a, 0x3d, 0x81, 0xfa, 0x4b, 0x45, 0x91, 0xe0, 0x7d, 0xa9, 0xb6, 0x05, 0xd1, 0xee, 0x1f, 0xe0, 0xb4, 0xa6, 0xb8, 0xc0, 0x73, 0x11, 0x86, 0x30, 0xd0, 0xcf, 0xdc, 0x48, 0x55, 0xdc, 0x5b, 0xa1, 0x05, 0xfc, 0x32, 0xd2, 0xc3, 0x78, 0x4a, 0x50, 0xd4, 0x13, 0x6b, 0x26, 0x1d, 0x44, 0x45, 0xaf, 0x25, 0x40, 0xd2, 0x1c, 0xbd, 0xd3, 0x5e, 0x99, 0xbe, 0x2c, 0x17, 0xd2, 0xbe, 0xe9, 0xb0, 0x35, 0xfa, 0x56, 0x06, 0x70, 0x24, 0x38, 0xe6, 0xe1, 0xb5, 0x6a, 0xbd, 0xf5, 0x33, 0x07, 0xb7, 0xe5, 0xa7, 0x2e, 0x28, 0xa7, 0xa6, 0x69, 0x1f, 0x09, 0xc4, 0xd6, 0xd4, 0x25, 0xd3, 0x7f, 0x17, 0x2a, 0x13, 0x18, 0x53, 0xf1, 0xb9, 0x08, 0x11, 0xd2, 0xca, 0x32, 0x97, 0x15, 0x2f, 0x44, 0x5a, 0xea, 0x58, 0xbc, 0x07, 0x59, 0xdc, 0x22, 0x3e, 0x10, 0xa1, 0x6a, 0xc1, 0x64, 0xa1, 0xe5, 0xf2, 0x5b, 0x2c, 0x6b, 0xbe, 0x3f, 0xed, 0x21, 0xad, 0x9a, 0xb0, 0x10, 0xa4, 0x5b, 0xd4, 0x1f, 0xff, 0x18, 0x5b, 0xf6, 0xab, 0x37, 0x0c, 0xe2, 0xe1, 0xa1, 0x1e, 0xa9, 0xce, 0xc2, 0x03, 0xa5, 0xed, 0x5f, 0x18, 0x57, 0xc6, 0xc7, 0xce, 0x81, 0xba, 0x18, 0x81, 0x13, 0xff, 0x8a, 0xae, 0x47, 0xfb, 0x94, 0x3c, 0x86, 0x13, 0x8c, 0x9c, 0x91, 0x71, 0xe3, 0xbd, 0x09, 0x7e, 0x52, 0xd3, 0xd5, 0x16, 0xc6, 0x0e, 0x8b, 0xa4, 0xf3, 0x61, 0x49, 0xe9, 0x60, 0xa0, 0x91, 0x9d, 0x85, 0xbe, 0xd9, 0x36, 0x40, 0x32, 0xb1, 0xcb, 0xda, 0xbc, 0xd1, 0x99, 0xb4, 0xf0, 0x9c, 0x2c, 0x24, 0x2c, 0x1e, 0x01, 0x1b, 0x54, 0x38, 0xfd, 0x10, 0x4e, 0xb9, 0x61, 0xfa, 0xc4, 0xce, 0x38, 0x0a, 0x43, 0xe5, 0xd7, 0x88, 0x40, 0xd3, 0xc4, 0xae, 0xc6, 0xc2, 0x5e, 0x9d, 0x9d, 0x30, 0xbe, 0xa9, 0xa3, 0x37, 0xb0, 0xaa, 0xe3, 0xdb, 0xbf, 0xb4, 0x21, 0x81, 0xdd, 0xaf, 0x07, 0x63, 0xd5, 0x56, 0xdd, 0xe8, 0x09, 0x8b, 0x62, 0x12, 0x5c, 0xe8, 0x28, 0xb4, 0xb7, 0x93, 0xdc, 0xab, 0xef, 0xa5, 0xdf, 0x1c, 0x5b, 0x3b, 0x43, 0xea, 0xb6, 0x10, 0x2d, 0x11, 0x4a, 0x22, 0xe8, 0x3d, 0x6c, 0xf8, 0xf4, 0xd3, 0xf3, 0x22, 0x6b, 0x09, 0x0f, 0xce, 0xb1, 0x25, 0xc5, 0x4f, 0x7e, 0xee, 0xe9, 0x25, 0x1b, 0xa5, 0x46, 0x7f, 0xcf, 0x56, 0x03, 0x9f, 0x2a, 0xc8, 0x1c, 0x60, 0xd6, 0xc6, 0x91, 0x52, 0xfa, 0x35, 0x64, 0x6d, 0x2b, 0x1f, 0x05, 0x16, 0x3c, 0xb4, 0x98, 0x27, 0x25, 0xb3, 0xad, 0xfe, 0x67, 0x27, 0xb3, 0x00, 0x1a, 0x5f, 0xe6, 0xef, 0xbf, 0x61, 0x61, 0x03, 0xc9, 0xed, 0x4a, 0xc0, 0xcc, 0xc7, 0xf9, 0xcd, 0x4e, 0xb0, 0xd0, 0x16, 0x65, 0x39, 0x05, 0x4f, 0x4d, 0xef, 0x17, 0xb3, 0x29, 0x1f, 0x5d, 0xfa, 0xf9, 0xff, 0xff, 0x04, 0x00, 0x00, 0x00, 0x80, 0x00, 0x00, 0x00, 0x66, 0xfd, 0xff, 0xff, 0xf4, 0x03, 0x00, 0x00, 0xd5, 0x05, 0x00, 0x00, 0xa7, 0xfa, 0xff, 0xff, 0xe6, 0x02, 0x00, 0x00, 0x6d, 0x02, 0x00, 0x00, 0x58, 0x02, 0x00, 0x00, 0x51, 0x02, 0x00, 0x00, 0xe4, 0x01, 0x00, 0x00, 0x97, 0x03, 0x00, 0x00, 0x6c, 0x02, 0x00, 0x00, 0xd8, 0x01, 0x00, 0x00, 0x4f, 0x02, 0x00, 0x00, 0x65, 0x03, 0x00, 0x00, 0x3e, 0x03, 0x00, 0x00, 0x24, 0x01, 0x00, 0x00, 0x67, 0x02, 0x00, 0x00, 0xf0, 0x04, 0x00, 0x00, 0x60, 0xff, 0xff, 0xff, 0x97, 0x05, 0x00, 0x00, 0x76, 0x03, 0x00, 0x00, 0x73, 0xfd, 0xff, 0xff, 0x25, 0x03, 0x00, 0x00, 0xe9, 0xf8, 0xff, 0xff, 0xcc, 0x01, 0x00, 0x00, 0x1e, 0x01, 0x00, 0x00, 0x64, 0x02, 0x00, 0x00, 0x90, 0x02, 0x00, 0x00, 0xed, 0xfc, 0xff, 0xff, 0x75, 0x02, 0x00, 0x00, 0x0f, 0x01, 0x00, 0x00, 0x43, 0x02, 0x00, 0x00, 0x86, 0xfa, 0xff, 0xff, 0x04, 0x00, 0x00, 0x00, 0x00, 0x03, 0x00, 0x00, 0xee, 0x38, 0xda, 0xb3, 0x45, 0x57, 0x28, 0x00, 0x31, 0x56, 0xed, 0x62, 0xf5, 0xdd, 0xc3, 0x53, 0xc4, 0x39, 0xf6, 0x5a, 0xa0, 0xbc, 0x38, 0xa4, 0xa1, 0x1d, 0xd5, 0x63, 0xac, 0xa8, 0x10, 0xde, 0x11, 0x15, 0x55, 0x18, 0x2b, 0x0a, 0x1d, 0xd8, 0x47, 0xfc, 0xea, 0x4b, 0xec, 0x75, 0x1a, 0xf0, 0xd7, 0x26, 0x19, 0x53, 0x29, 0x1d, 0xc6, 0x0c, 0xd4, 0xea, 0x9e, 0x17, 0x24, 0x3b, 0x34, 0xa3, 0xb8, 0xcf, 0xa1, 0x30, 0xf3, 0x3f, 0x37, 0xe2, 0x22, 0xab, 0xc9, 0x9b, 0xd9, 0x39, 0xf5, 0xab, 0xca, 0xca, 0x29, 0xd5, 0xd2, 0xc2, 0x0b, 0xf5, 0x44, 0x1a, 0x47, 0xf6, 0x53, 0xb8, 0x1e, 0x4f, 0xc5, 0x1c, 0x31, 0xaf, 0xab, 0x54, 0xb2, 0x40, 0x08, 0xed, 0x31, 0x13, 0xbc, 0xd2, 0xfb, 0xef, 0x2c, 0x63, 0x49, 0x20, 0xe6, 0xc3, 0x2d, 0x11, 0x59, 0xbc, 0xf9, 0xd9, 0x07, 0x0e, 0xf4, 0xd5, 0x58, 0xb2, 0x46, 0xac, 0xab, 0xfd, 0x2c, 0x46, 0x96, 0x1c, 0xbf, 0xd0, 0x55, 0x1d, 0x19, 0x37, 0xec, 0xd6, 0xed, 0x23, 0x22, 0xc7, 0x9d, 0xf6, 0xa6, 0xe7, 0xdd, 0xad, 0xdf, 0xe6, 0x07, 0x06, 0x48, 0xae, 0xa8, 0x62, 0x2a, 0x56, 0x3b, 0xd1, 0x2c, 0x70, 0xc8, 0xb4, 0xd5, 0x11, 0x6a, 0x14, 0xb6, 0x26, 0x59, 0x1c, 0x38, 0x5e, 0x1a, 0x59, 0x47, 0x00, 0xd4, 0x01, 0x03, 0xe3, 0x3d, 0x5b, 0xab, 0xe5, 0xea, 0xea, 0x97, 0x32, 0x26, 0xe5, 0xf1, 0xc3, 0x9c, 0xad, 0xc2, 0x3f, 0x48, 0x2c, 0xae, 0x18, 0xbf, 0x50, 0xb4, 0xbd, 0x53, 0xf7, 0x07, 0x43, 0xef, 0xcc, 0x33, 0xac, 0xdc, 0xfb, 0xca, 0x46, 0x0c, 0xf3, 0x5e, 0xb2, 0x1e, 0xef, 0xa5, 0x16, 0x67, 0xf2, 0x77, 0x5f, 0x06, 0xbf, 0xfa, 0x5f, 0xc0, 0xe1, 0xe5, 0xbb, 0xfd, 0xd7, 0x5b, 0xe4, 0xaf, 0x69, 0xc0, 0xe9, 0x3a, 0x21, 0x40, 0x40, 0xb0, 0x47, 0x5c, 0xac, 0x18, 0x2c, 0x4f, 0xd8, 0xd8, 0x37, 0xef, 0x69, 0x1c, 0x4c, 0xc8, 0x62, 0x64, 0xfd, 0xf6, 0x23, 0xa0, 0x41, 0xee, 0xf9, 0xb7, 0x41, 0x47, 0x61, 0xba, 0x4c, 0xc4, 0xf6, 0x71, 0x56, 0xd5, 0xd6, 0xe3, 0xed, 0xf4, 0xd7, 0x30, 0xe4, 0x65, 0x0a, 0x03, 0xc1, 0xfe, 0x27, 0xef, 0xff, 0xeb, 0x3f, 0x46, 0xbb, 0x33, 0xd6, 0x26, 0x1d, 0xed, 0x2f, 0xb5, 0x49, 0x67, 0xbe, 0xf9, 0xce, 0xe6, 0x21, 0x3a, 0x6f, 0x13, 0xab, 0xe7, 0x5f, 0x40, 0x2f, 0xd7, 0x47, 0xa5, 0x35, 0x04, 0x22, 0xb8, 0x16, 0x0f, 0xd7, 0x06, 0x14, 0x2b, 0x2e, 0xc3, 0x51, 0xdf, 0x37, 0x13, 0xcb, 0x5a, 0x21, 0x22, 0x3f, 0xef, 0xc0, 0x04, 0xfd, 0xda, 0xd2, 0xb1, 0x4b, 0xe1, 0x29, 0xf9, 0xc2, 0x68, 0x2f, 0xda, 0x45, 0xd6, 0xec, 0xf9, 0x9b, 0xc3, 0x4b, 0x49, 0xd2, 0xd2, 0x5a, 0x4a, 0xbe, 0xc9, 0x51, 0xfc, 0x60, 0x3f, 0x40, 0xb4, 0x53, 0xbb, 0xd3, 0x45, 0x59, 0xe7, 0xde, 0x2f, 0x5b, 0x54, 0x24, 0x25, 0x25, 0x2c, 0xa6, 0x65, 0xd0, 0xae, 0xdf, 0xd5, 0x9e, 0x08, 0xc9, 0x6e, 0x51, 0x61, 0xb2, 0xb4, 0xcd, 0x57, 0x4a, 0x9f, 0x46, 0xcb, 0xd0, 0xb6, 0x65, 0x5b, 0xdd, 0x1a, 0x46, 0xb2, 0xc7, 0x2f, 0xa6, 0x60, 0x10, 0xc4, 0x51, 0xd3, 0x14, 0x24, 0x22, 0x05, 0xbf, 0x08, 0xce, 0x32, 0x08, 0x35, 0x50, 0x44, 0xc6, 0x68, 0x07, 0xb6, 0xd2, 0x29, 0xe8, 0xbf, 0x1b, 0x42, 0xcc, 0x1f, 0xf2, 0x37, 0x31, 0xdc, 0x27, 0x4d, 0x3b, 0xa7, 0x5c, 0xf2, 0x15, 0x3a, 0x26, 0xb7, 0x14, 0xaa, 0x32, 0x52, 0x60, 0xb6, 0xaf, 0x66, 0xf6, 0xcf, 0xd0, 0x5b, 0xf2, 0x11, 0xa4, 0xc4, 0x33, 0x3b, 0xad, 0xcc, 0xec, 0x2b, 0xdd, 0xec, 0xac, 0x1e, 0xbd, 0x35, 0xf4, 0xae, 0x0e, 0xcb, 0x2f, 0x45, 0xe3, 0x31, 0x5c, 0x9f, 0xcc, 0xf2, 0x3b, 0x34, 0xb7, 0x07, 0x41, 0x0d, 0x42, 0x3d, 0x4c, 0x9d, 0x38, 0x40, 0xa6, 0x28, 0xda, 0xd5, 0x30, 0x25, 0xa2, 0x25, 0x57, 0x0c, 0x41, 0xdb, 0x0e, 0x63, 0xb7, 0x55, 0xaf, 0x1c, 0x4e, 0x36, 0xf7, 0xad, 0xf7, 0x9c, 0xad, 0x2c, 0x72, 0x65, 0x15, 0x63, 0x2a, 0xc1, 0x54, 0x21, 0xf9, 0x67, 0x69, 0x7f, 0xdc, 0xb6, 0xdb, 0xc0, 0x3a, 0x62, 0xb6, 0x08, 0xc5, 0xc9, 0xae, 0x4f, 0xa1, 0xdd, 0x1d, 0xde, 0x0d, 0x1b, 0xac, 0x32, 0xa4, 0xa2, 0xbc, 0x25, 0x25, 0x4e, 0x53, 0x3c, 0xed, 0xf5, 0x3e, 0x13, 0x32, 0x10, 0xbf, 0x13, 0xb5, 0x49, 0xce, 0x07, 0x32, 0xe0, 0x17, 0xea, 0x14, 0xd9, 0x05, 0x4e, 0x3b, 0xbd, 0x97, 0x32, 0xac, 0x4e, 0x34, 0x47, 0x3b, 0xae, 0x9c, 0x51, 0x3b, 0x1f, 0xa6, 0x5b, 0x61, 0x3c, 0x18, 0x02, 0xdf, 0xf2, 0x28, 0x79, 0x2f, 0x5b, 0x74, 0x46, 0xae, 0x0d, 0xe1, 0xf3, 0x36, 0xea, 0x18, 0x78, 0x24, 0xe5, 0xb7, 0xeb, 0x00, 0xe6, 0xb4, 0xb6, 0x10, 0x10, 0x2c, 0xc0, 0xb7, 0xaf, 0x2a, 0x2f, 0xf1, 0xd0, 0x6a, 0xfe, 0xdb, 0x52, 0x02, 0xd6, 0xf6, 0x72, 0xfa, 0x38, 0xa6, 0xcc, 0xad, 0x51, 0xef, 0xf2, 0xa7, 0x41, 0x42, 0xfd, 0x36, 0x9e, 0xe6, 0xff, 0xba, 0xbe, 0x4a, 0x28, 0xc5, 0x04, 0xb6, 0x21, 0x27, 0xff, 0xce, 0x2c, 0x10, 0x64, 0xa2, 0x02, 0x00, 0xdc, 0x1b, 0x05, 0x3a, 0x63, 0x20, 0x48, 0xc8, 0x1b, 0xed, 0xfc, 0x26, 0x10, 0xc0, 0xe5, 0xc1, 0x13, 0xb9, 0x44, 0xaa, 0x35, 0xdd, 0xa8, 0xe8, 0xc0, 0xc0, 0x0f, 0x3f, 0x25, 0xbf, 0xb6, 0xd8, 0xbf, 0x07, 0xaa, 0xb2, 0xdb, 0x5b, 0x18, 0xe4, 0xa7, 0xe9, 0x18, 0xbb, 0xd6, 0x61, 0x4f, 0x18, 0xed, 0x2c, 0xdf, 0x0b, 0x12, 0xc0, 0x92, 0xfd, 0xff, 0xff, 0x04, 0x00, 0x00, 0x00, 0x60, 0x00, 0x00, 0x00, 0x3c, 0x04, 0x00, 0x00, 0x87, 0x04, 0x00, 0x00, 0x00, 0xfb, 0xff, 0xff, 0xa6, 0x03, 0x00, 0x00, 0x56, 0xfd, 0xff, 0xff, 0x69, 0xff, 0xff, 0xff, 0xe4, 0xfc, 0xff, 0xff, 0xbb, 0x05, 0x00, 0x00, 0x78, 0x00, 0x00, 0x00, 0xbf, 0x06, 0x00, 0x00, 0xc1, 0x01, 0x00, 0x00, 0x12, 0x05, 0x00, 0x00, 0xf2, 0x02, 0x00, 0x00, 0x95, 0x06, 0x00, 0x00, 0x7b, 0xfc, 0xff, 0xff, 0xaa, 0x02, 0x00, 0x00, 0xfb, 0x06, 0x00, 0x00, 0x19, 0x06, 0x00, 0x00, 0xa4, 0x00, 0x00, 0x00, 0x95, 0x01, 0x00, 0x00, 0x30, 0x0a, 0x00, 0x00, 0x05, 0x04, 0x00, 0x00, 0x2b, 0x00, 0x00, 0x00, 0x00, 0x00, 0x00, 0x00, 0xfe, 0xfd, 0xff, 0xff, 0x04, 0x00, 0x00, 0x00, 0x60, 0x00, 0x00, 0x00, 0xb7, 0xb4, 0xab, 0x0a, 0xd5, 0x57, 0xfd, 0xca, 0xc6, 0xad, 0x8c, 0xb7, 0x20, 0x03, 0x00, 0x29, 0x79, 0xfa, 0x30, 0xa5, 0xd4, 0xf9, 0xe9, 0x6d, 0xae, 0x49, 0xba, 0x81, 0xb7, 0xe4, 0x56, 0x6d, 0xeb, 0x4f, 0xe5, 0xd2, 0xf2, 0x28, 0xd3, 0x6b, 0x3b, 0x9c, 0xf5, 0xd9, 0xee, 0xdf, 0xc9, 0x96, 0x19, 0x3f, 0xc8, 0xb3, 0xb2, 0x25, 0xfe, 0x88, 0xc3, 0x86, 0x8b, 0xe3, 0x10, 0xb1, 0x1d, 0xac, 0xe6, 0x01, 0x6d, 0xdf, 0x07, 0x5b, 0x6c, 0x11, 0x00, 0xf9, 0x0a, 0xfe, 0x33, 0xac, 0x11, 0xf3, 0xef, 0x2c, 0x24, 0x04, 0x93, 0x21, 0xe3, 0xcb, 0xc1, 0x16, 0xf5, 0x7a, 0x9c, 0xbc, 0x94, 0x99, 0x6a, 0xfe, 0xff, 0xff, 0x04, 0x00, 0x00, 0x00, 0x10, 0x00, 0x00, 0x00, 0xd5, 0x01, 0x00, 0x00, 0x72, 0x00, 0x00, 0x00, 0xfa, 0xfd, 0xff, 0xff, 0x94, 0x00, 0x00, 0x00, 0x86, 0xfe, 0xff, 0xff, 0x04, 0x00, 0x00, 0x00, 0x04, 0x00, 0x00, 0x00, 0x01, 0x00, 0x00, 0x00, 0x96, 0xfe, 0xff, 0xff, 0x04, 0x00, 0x00, 0x00, 0x0c, 0x00, 0x00, 0x00, 0xff, 0xff, 0xff, 0xff, 0x19, 0x00, 0x00, 0x00, 0x20, 0x00, 0x00, 0x00, 0xae, 0xfe, 0xff, 0xff, 0x04, 0x00, 0x00, 0x00, 0x0c, 0x00, 0x00, 0x00, 0xff, 0xff, 0xff, 0xff, 0x19, 0x00, 0x00, 0x00, 0x18, 0x00, 0x00, 0x00, 0xc6, 0xfe, 0xff, 0xff, 0x04, 0x00, 0x00, 0x00, 0x0c, 0x00, 0x00, 0x00, 0xff, 0xff, 0xff, 0xff, 0x32, 0x00, 0x00, 0x00, 0x18, 0x00, 0x00, 0x00, 0xde, 0xfe, 0xff, 0xff, 0x04, 0x00, 0x00, 0x00, 0x0c, 0x00, 0x00, 0x00, 0xff, 0xff, 0xff, 0xff, 0x32, 0x00, 0x00, 0x00, 0x10, 0x00, 0x00, 0x00, 0xf6, 0xfe, 0xff, 0xff, 0x04, 0x00, 0x00, 0x00, 0x04, 0x00, 0x00, 0x00, 0x02, 0x00, 0x00, 0x00, 0x06, 0xff, 0xff, 0xff, 0x04, 0x00, 0x00, 0x00, 0x0c, 0x00, 0x00, 0x00, 0xff, 0xff, 0xff, 0xff, 0x64, 0x00, 0x00, 0x00, 0x10, 0x00, 0x00, 0x00, 0x1e, 0xff, 0xff, 0xff, 0x04, 0x00, 0x00, 0x00, 0x04, 0x00, 0x00, 0x00, 0xfd, 0xff, 0xff, 0xff, 0xbc, 0xd4, 0xff, 0xff, 0xc0, 0xd4, 0xff, 0xff, 0x0f, 0x00, 0x00, 0x00, 0x4d, 0x4c, 0x49, 0x52, 0x20, 0x43, 0x6f, 0x6e, 0x76, 0x65, 0x72, 0x74, 0x65, 0x64, 0x2e, 0x00, 0x01, 0x00, 0x00, 0x00, 0x14, 0x00, 0x00, 0x00, 0x00, 0x00, 0x0e, 0x00, 0x18, 0x00, 0x14, 0x00, 0x10, 0x00, 0x0c, 0x00, 0x08, 0x00, 0x04, 0x00, 0x0e, 0x00, 0x00, 0x00, 0x14, 0x00, 0x00, 0x00, 0x1c, 0x00, 0x00, 0x00, 0x2c, 0x05, 0x00, 0x00, 0x30, 0x05, 0x00, 0x00, 0x34, 0x05, 0x00, 0x00, 0x04, 0x00, 0x00, 0x00, 0x6d, 0x61, 0x69, 0x6e, 0x00, 0x00, 0x00, 0x00, 0x17, 0x00, 0x00, 0x00, 0xe4, 0x04, 0x00, 0x00, 0x84, 0x04, 0x00, 0x00, 0x40, 0x04, 0x00, 0x00, 0x0c, 0x04, 0x00, 0x00, 0xe4, 0x03, 0x00, 0x00, 0xa8, 0x03, 0x00, 0x00, 0x54, 0x03, 0x00, 0x00, 0x2c, 0x03, 0x00, 0x00, 0xfc, 0x02, 0x00, 0x00, 0xb8, 0x02, 0x00, 0x00, 0x84, 0x02, 0x00, 0x00, 0x50, 0x02, 0x00, 0x00, 0x28, 0x02, 0x00, 0x00, 0xf8, 0x01, 0x00, 0x00, 0xb4, 0x01, 0x00, 0x00, 0x8c, 0x01, 0x00, 0x00, 0x5c, 0x01, 0x00, 0x00, 0x18, 0x01, 0x00, 0x00, 0xf0, 0x00, 0x00, 0x00, 0xbc, 0x00, 0x00, 0x00, 0x78, 0x00, 0x00, 0x00, 0x40, 0x00, 0x00, 0x00, 0x04, 0x00, 0x00, 0x00, 0xe2, 0xfb, 0xff, 0xff, 0x1c, 0x00, 0x00, 0x00, 0x00, 0x00, 0x00, 0x09, 0x1c, 0x00, 0x00, 0x00, 0x20, 0x00, 0x00, 0x00, 0x08, 0x00, 0x00, 0x00, 0x00, 0x00, 0x06, 0x00, 0x08, 0x00, 0x04, 0x00, 0x06, 0x00, 0x00, 0x00, 0x00, 0x00, 0x80, 0x3f, 0x01, 0x00, 0x00, 0x00, 0x2d, 0x00, 0x00, 0x00, 0x01, 0x00, 0x00, 0x00, 0x2c, 0x00, 0x00, 0x00, 0x1a, 0xfc, 0xff, 0xff, 0x14, 0x00, 0x00, 0x00, 0x00, 0x00, 0x00, 0x08, 0x10, 0x00, 0x00, 0x00, 0x14, 0x00, 0x00, 0x00, 0x07, 0x00, 0x00, 0x00, 0xc4, 0xd5, 0xff, 0xff, 0x01, 0x00, 0x00, 0x00, 0x2c, 0x00, 0x00, 0x00, 0x03, 0x00, 0x00, 0x00, 0x2b, 0x00, 0x00, 0x00, 0x0a, 0x00, 0x00, 0x00, 0x09, 0x00, 0x00, 0x00, 0x4e, 0xfc, 0xff, 0xff, 0x1c, 0x00, 0x00, 0x00, 0x00, 0x00, 0x00, 0x08, 0x1c, 0x00, 0x00, 0x00, 0x20, 0x00, 0x00, 0x00, 0x07, 0x00, 0x00, 0x00, 0x00, 0x00, 0x06, 0x00, 0x08, 0x00, 0x07, 0x00, 0x06, 0x00, 0x00, 0x00, 0x00, 0x00, 0x00, 0x01, 0x01, 0x00, 0x00, 0x00, 0x2b, 0x00, 0x00, 0x00, 0x03, 0x00, 0x00, 0x00, 0x2a, 0x00, 0x00, 0x00, 0x0c, 0x00, 0x00, 0x00, 0x0b, 0x00, 0x00, 0x00, 0x8e, 0xfc, 0xff, 0xff, 0x14, 0x00, 0x00, 0x00, 0x00, 0x00, 0x00, 0x1b, 0x10, 0x00, 0x00, 0x00, 0x14, 0x00, 0x00, 0x00, 0x06, 0x00, 0x00, 0x00, 0x38, 0xd6, 0xff, 0xff, 0x01, 0x00, 0x00, 0x00, 0x2a, 0x00, 0x00, 0x00, 0x02, 0x00, 0x00, 0x00, 0x29, 0x00, 0x00, 0x00, 0x08, 0x00, 0x00, 0x00, 0x4e, 0xfd, 0xff, 0xff, 0x0c, 0x00, 0x00, 0x00, 0x10, 0x00, 0x00, 0x00, 0x04, 0x00, 0x00, 0x00, 0x01, 0x00, 0x00, 0x00, 0x29, 0x00, 0x00, 0x00, 0x02, 0x00, 0x00, 0x00, 0x28, 0x00, 0x00, 0x00, 0x07, 0x00, 0x00, 0x00, 0xe2, 0xfc, 0xff, 0xff, 0x14, 0x00, 0x00, 0x00, 0x00, 0x00, 0x00, 0x01, 0x1c, 0x00, 0x00, 0x00, 0x20, 0x00, 0x00, 0x00, 0x01, 0x00, 0x00, 0x00, 0xd4, 0xfc, 0xff, 0xff, 0x00, 0x00, 0x00, 0x01, 0x01, 0x00, 0x00, 0x00, 0x01, 0x00, 0x00, 0x00, 0x01, 0x00, 0x00, 0x00, 0x28, 0x00, 0x00, 0x00, 0x03, 0x00, 0x00, 0x00, 0x27, 0x00, 0x00, 0x00, 0x0e, 0x00, 0x00, 0x00, 0x0d, 0x00, 0x00, 0x00, 0xc6, 0xfc, 0xff, 0xff, 0x10, 0x00, 0x00, 0x00, 0x00, 0x00, 0x00, 0x34, 0x0c, 0x00, 0x00, 0x00, 0x10, 0x00, 0x00, 0x00, 0xc8, 0xd6, 0xff, 0xff, 0x01, 0x00, 0x00, 0x00, 0x27, 0x00, 0x00, 0x00, 0x02, 0x00, 0x00, 0x00, 0x26, 0x00, 0x00, 0x00, 0x01, 0x00, 0x00, 0x00, 0xde, 0xfd, 0xff, 0xff, 0x0c, 0x00, 0x00, 0x00, 0x10, 0x00, 0x00, 0x00, 0x04, 0x00, 0x00, 0x00, 0x01, 0x00, 0x00, 0x00, 0x26, 0x00, 0x00, 0x00, 0x02, 0x00, 0x00, 0x00, 0x25, 0x00, 0x00, 0x00, 0x06, 0x00, 0x00, 0x00, 0x72, 0xfd, 0xff, 0xff, 0x14, 0x00, 0x00, 0x00, 0x00, 0x00, 0x00, 0x05, 0x24, 0x00, 0x00, 0x00, 0x28, 0x00, 0x00, 0x00, 0x05, 0x00, 0x00, 0x00, 0x7e, 0xfe, 0xff, 0xff, 0x02, 0x00, 0x00, 0x00, 0x01, 0x00, 0x00, 0x00, 0x02, 0x00, 0x00, 0x00, 0x01, 0x00, 0x00, 0x00, 0x00, 0x00, 0x00, 0x01, 0x01, 0x00, 0x00, 0x00, 0x25, 0x00, 0x00, 0x00, 0x01, 0x00, 0x00, 0x00, 0x24, 0x00, 0x00, 0x00, 0x56, 0xfd, 0xff, 0xff, 0x10, 0x00, 0x00, 0x00, 0x00, 0x00, 0x00, 0x34, 0x0c, 0x00, 0x00, 0x00, 0x10, 0x00, 0x00, 0x00, 0x58, 0xd7, 0xff, 0xff, 0x01, 0x00, 0x00, 0x00, 0x24, 0x00, 0x00, 0x00, 0x02, 0x00, 0x00, 0x00, 0x23, 0x00, 0x00, 0x00, 0x03, 0x00, 0x00, 0x00, 0x6e, 0xfe, 0xff, 0xff, 0x0c, 0x00, 0x00, 0x00, 0x10, 0x00, 0x00, 0x00, 0x04, 0x00, 0x00, 0x00, 0x01, 0x00, 0x00, 0x00, 0x23, 0x00, 0x00, 0x00, 0x02, 0x00, 0x00, 0x00, 0x22, 0x00, 0x00, 0x00, 0x05, 0x00, 0x00, 0x00, 0x02, 0xfe, 0xff, 0xff, 0x14, 0x00, 0x00, 0x00, 0x00, 0x00, 0x00, 0x0b, 0x10, 0x00, 0x00, 0x00, 0x14, 0x00, 0x00, 0x00, 0x03, 0x00, 0x00, 0x00, 0xac, 0xd7, 0xff, 0xff, 0x01, 0x00, 0x00, 0x00, 0x22, 0x00, 0x00, 0x00, 0x02, 0x00, 0x00, 0x00, 0x21, 0x00, 0x00, 0x00, 0x0f, 0x00, 0x00, 0x00, 0x32, 0xfe, 0xff, 0xff, 0x14, 0x00, 0x00, 0x00, 0x00, 0x00, 0x00, 0x15, 0x10, 0x00, 0x00, 0x00, 0x14, 0x00, 0x00, 0x00, 0x02, 0x00, 0x00, 0x00, 0xdc, 0xd7, 0xff, 0xff, 0x01, 0x00, 0x00, 0x00, 0x21, 0x00, 0x00, 0x00, 0x02, 0x00, 0x00, 0x00, 0x20, 0x00, 0x00, 0x00, 0x10, 0x00, 0x00, 0x00, 0x62, 0xfe, 0xff, 0xff, 0x14, 0x00, 0x00, 0x00, 0x00, 0x00, 0x00, 0x01, 0x1c, 0x00, 0x00, 0x00, 0x20, 0x00, 0x00, 0x00, 0x01, 0x00, 0x00, 0x00, 0x54, 0xfe, 0xff, 0xff, 0x00, 0x00, 0x00, 0x01, 0x01, 0x00, 0x00, 0x00, 0x01, 0x00, 0x00, 0x00, 0x01, 0x00, 0x00, 0x00, 0x20, 0x00, 0x00, 0x00, 0x03, 0x00, 0x00, 0x00, 0x1f, 0x00, 0x00, 0x00, 0x12, 0x00, 0x00, 0x00, 0x11, 0x00, 0x00, 0x00, 0x46, 0xfe, 0xff, 0xff, 0x10, 0x00, 0x00, 0x00, 0x00, 0x00, 0x00, 0x34, 0x0c, 0x00, 0x00, 0x00, 0x10, 0x00, 0x00, 0x00, 0x48, 0xd8, 0xff, 0xff, 0x01, 0x00, 0x00, 0x00, 0x1f, 0x00, 0x00, 0x00, 0x02, 0x00, 0x00, 0x00, 0x1e, 0x00, 0x00, 0x00, 0x01, 0x00, 0x00, 0x00, 0x5e, 0xff, 0xff, 0xff, 0x0c, 0x00, 0x00, 0x00, 0x10, 0x00, 0x00, 0x00, 0x04, 0x00, 0x00, 0x00, 0x01, 0x00, 0x00, 0x00, 0x1e, 0x00, 0x00, 0x00, 0x02, 0x00, 0x00, 0x00, 0x1d, 0x00, 0x00, 0x00, 0x04, 0x00, 0x00, 0x00, 0xf2, 0xfe, 0xff, 0xff, 0x24, 0x00, 0x00, 0x00, 0x00, 0x00, 0x00, 0x05, 0x34, 0x00, 0x00, 0x00, 0x38, 0x00, 0x00, 0x00, 0x05, 0x00, 0x00, 0x00, 0x00, 0x00, 0x0e, 0x00, 0x18, 0x00, 0x17, 0x00, 0x10, 0x00, 0x0c, 0x00, 0x08, 0x00, 0x04, 0x00, 0x0e, 0x00, 0x00, 0x00, 0x02, 0x00, 0x00, 0x00, 0x01, 0x00, 0x00, 0x00, 0x02, 0x00, 0x00, 0x00, 0x01, 0x00, 0x00, 0x00, 0x00, 0x00, 0x00, 0x01, 0x01, 0x00, 0x00, 0x00, 0x1d, 0x00, 0x00, 0x00, 0x01, 0x00, 0x00, 0x00, 0x1c, 0x00, 0x00, 0x00, 0xe6, 0xfe, 0xff, 0xff, 0x10, 0x00, 0x00, 0x00, 0x00, 0x00, 0x00, 0x34, 0x0c, 0x00, 0x00, 0x00, 0x10, 0x00, 0x00, 0x00, 0xe8, 0xd8, 0xff, 0xff, 0x01, 0x00, 0x00, 0x00, 0x1c, 0x00, 0x00, 0x00, 0x02, 0x00, 0x00, 0x00, 0x1b, 0x00, 0x00, 0x00, 0x03, 0x00, 0x00, 0x00, 0x00, 0x00, 0x0a, 0x00, 0x10, 0x00, 0x0c, 0x00, 0x08, 0x00, 0x04, 0x00, 0x0a, 0x00, 0x00, 0x00, 0x0c, 0x00, 0x00, 0x00, 0x10, 0x00, 0x00, 0x00, 0x04, 0x00, 0x00, 0x00, 0x01, 0x00, 0x00, 0x00, 0x1b, 0x00, 0x00, 0x00, 0x02, 0x00, 0x00, 0x00, 0x1a, 0x00, 0x00, 0x00, 0x02, 0x00, 0x00, 0x00, 0x9e, 0xff, 0xff, 0xff, 0x14, 0x00, 0x00, 0x00, 0x00, 0x00, 0x00, 0x0b, 0x10, 0x00, 0x00, 0x00, 0x14, 0x00, 0x00, 0x00, 0x03, 0x00, 0x00, 0x00, 0x48, 0xd9, 0xff, 0xff, 0x01, 0x00, 0x00, 0x00, 0x1a, 0x00, 0x00, 0x00, 0x02, 0x00, 0x00, 0x00, 0x19, 0x00, 0x00, 0x00, 0x13, 0x00, 0x00, 0x00, 0xce, 0xff, 0xff, 0xff, 0x14, 0x00, 0x00, 0x00, 0x00, 0x00, 0x00, 0x15, 0x10, 0x00, 0x00, 0x00, 0x14, 0x00, 0x00, 0x00, 0x02, 0x00, 0x00, 0x00, 0x78, 0xd9, 0xff, 0xff, 0x01, 0x00, 0x00, 0x00, 0x19, 0x00, 0x00, 0x00, 0x02, 0x00, 0x00, 0x00, 0x18, 0x00, 0x00, 0x00, 0x14, 0x00, 0x00, 0x00, 0x00, 0x00, 0x0e, 0x00, 0x18, 0x00, 0x14, 0x00, 0x10, 0x00, 0x0c, 0x00, 0x0b, 0x00, 0x04, 0x00, 0x0e, 0x00, 0x00, 0x00, 0x20, 0x00, 0x00, 0x00, 0x00, 0x00, 0x00, 0x01, 0x28, 0x00, 0x00, 0x00, 0x2c, 0x00, 0x00, 0x00, 0x01, 0x00, 0x00, 0x00, 0x0c, 0x00, 0x10, 0x00, 0x00, 0x00, 0x0c, 0x00, 0x08, 0x00, 0x07, 0x00, 0x0c, 0x00, 0x00, 0x00, 0x00, 0x00, 0x00, 0x01, 0x01, 0x00, 0x00, 0x00, 0x01, 0x00, 0x00, 0x00, 0x01, 0x00, 0x00, 0x00, 0x18, 0x00, 0x00, 0x00, 0x03, 0x00, 0x00, 0x00, 0x17, 0x00, 0x00, 0x00, 0x16, 0x00, 0x00, 0x00, 0x15, 0x00, 0x00, 0x00, 0x00, 0x00, 0x0e, 0x00, 0x14, 0x00, 0x00, 0x00, 0x10, 0x00, 0x0c, 0x00, 0x0b, 0x00, 0x04, 0x00, 0x0e, 0x00, 0x00, 0x00, 0x10, 0x00, 0x00, 0x00, 0x00, 0x00, 0x00, 0x34, 0x0c, 0x00, 0x00, 0x00, 0x10, 0x00, 0x00, 0x00, 0x10, 0xda, 0xff, 0xff, 0x01, 0x00, 0x00, 0x00, 0x17, 0x00, 0x00, 0x00, 0x02, 0x00, 0x00, 0x00, 0x00, 0x00, 0x00, 0x00, 0x01, 0x00, 0x00, 0x00, 0x01, 0x00, 0x00, 0x00, 0x2d, 0x00, 0x00, 0x00, 0x01, 0x00, 0x00, 0x00, 0x00, 0x00, 0x00, 0x00, 0x2e, 0x00, 0x00, 0x00, 0x18, 0x26, 0x00, 0x00, 0xa4, 0x25, 0x00, 0x00, 0x34, 0x25, 0x00, 0x00, 0xdc, 0x24, 0x00, 0x00, 0x84, 0x24, 0x00, 0x00, 0x2c, 0x24, 0x00, 0x00, 0xd4, 0x23, 0x00, 0x00, 0x7c, 0x23, 0x00, 0x00, 0x10, 0x23, 0x00, 0x00, 0x94, 0x22, 0x00, 0x00, 0x28, 0x22, 0x00, 0x00, 0xac, 0x21, 0x00, 0x00, 0x40, 0x21, 0x00, 0x00, 0x4c, 0x1f, 0x00, 0x00, 0x60, 0x1d, 0x00, 0x00, 0xdc, 0x1c, 0x00, 0x00, 0x58, 0x1c, 0x00, 0x00, 0xc4, 0x1a, 0x00, 0x00, 0x38, 0x19, 0x00, 0x00, 0xb4, 0x18, 0x00, 0x00, 0x30, 0x18, 0x00, 0x00, 0xfc, 0x16, 0x00, 0x00, 0xd0, 0x15, 0x00, 0x00, 0x34, 0x15, 0x00, 0x00, 0x18, 0x14, 0x00, 0x00, 0xb4, 0x12, 0x00, 0x00, 0xf0, 0x10, 0x00, 0x00, 0x30, 0x0f, 0x00, 0x00, 0x98, 0x0e, 0x00, 0x00, 0xfc, 0x0d, 0x00, 0x00, 0x6c, 0x0d, 0x00, 0x00, 0xd4, 0x0c, 0x00, 0x00, 0xb8, 0x0b, 0x00, 0x00, 0x54, 0x0a, 0x00, 0x00, 0x90, 0x08, 0x00, 0x00, 0xd0, 0x06, 0x00, 0x00, 0x38, 0x06, 0x00, 0x00, 0x9c, 0x05, 0x00, 0x00, 0x0c, 0x05, 0x00, 0x00, 0x74, 0x04, 0x00, 0x00, 0x58, 0x03, 0x00, 0x00, 0x60, 0x02, 0x00, 0x00, 0xd0, 0x01, 0x00, 0x00, 0x1c, 0x01, 0x00, 0x00, 0x80, 0x00, 0x00, 0x00, 0x04, 0x00, 0x00, 0x00, 0xb6, 0xda, 0xff, 0xff, 0x00, 0x00, 0x00, 0x01, 0x18, 0x00, 0x00, 0x00, 0x20, 0x00, 0x00, 0x00, 0x3c, 0x00, 0x00, 0x00, 0x2e, 0x00, 0x00, 0x00, 0x00, 0x00, 0x00, 0x09, 0x50, 0x00, 0x00, 0x00, 0x02, 0x00, 0x00, 0x00, 0xff, 0xff, 0xff, 0xff, 0x04, 0x00, 0x00, 0x00, 0x9c, 0xda, 0xff, 0xff, 0x08, 0x00, 0x00, 0x00, 0x10, 0x00, 0x00, 0x00, 0x01, 0x00, 0x00, 0x00, 0x80, 0xff, 0xff, 0xff, 0xff, 0xff, 0xff, 0xff, 0x01, 0x00, 0x00, 0x00, 0x00, 0x00, 0x80, 0x3b, 0x19, 0x00, 0x00, 0x00, 0x53, 0x74, 0x61, 0x74, 0x65, 0x66, 0x75, 0x6c, 0x50, 0x61, 0x72, 0x74, 0x69, 0x74, 0x69, 0x6f, 0x6e, 0x65, 0x64, 0x43, 0x61, 0x6c, 0x6c, 0x3a, 0x30, 0x00, 0x00, 0x00, 0x02, 0x00, 0x00, 0x00, 0x01, 0x00, 0x00, 0x00, 0x04, 0x00, 0x00, 0x00, 0x2e, 0xdb, 0xff, 0xff, 0x00, 0x00, 0x00, 0x01, 0x18, 0x00, 0x00, 0x00, 0x20, 0x00, 0x00, 0x00, 0x3c, 0x00, 0x00, 0x00, 0x2d, 0x00, 0x00, 0x00, 0x00, 0x00, 0x00, 0x09, 0x70, 0x00, 0x00, 0x00, 0x02, 0x00, 0x00, 0x00, 0xff, 0xff, 0xff, 0xff, 0x04, 0x00, 0x00, 0x00, 0x14, 0xdb, 0xff, 0xff, 0x08, 0x00, 0x00, 0x00, 0x10, 0x00, 0x00, 0x00, 0x01, 0x00, 0x00, 0x00, 0x0e, 0x00, 0x00, 0x00, 0x00, 0x00, 0x00, 0x00, 0x01, 0x00, 0x00, 0x00, 0x18, 0xc2, 0x95, 0x3c, 0x38, 0x00, 0x00, 0x00, 0x73, 0x65, 0x71, 0x75, 0x65, 0x6e, 0x74, 0x69, 0x61, 0x6c, 0x5f, 0x32, 0x2f, 0x64, 0x65, 0x6e, 0x73, 0x65, 0x5f, 0x35, 0x2f, 0x4d, 0x61, 0x74, 0x4d, 0x75, 0x6c, 0x3b, 0x73, 0x65, 0x71, 0x75, 0x65, 0x6e, 0x74, 0x69, 0x61, 0x6c, 0x5f, 0x32, 0x2f, 0x64, 0x65, 0x6e, 0x73, 0x65, 0x5f, 0x35, 0x2f, 0x42, 0x69, 0x61, 0x73, 0x41, 0x64, 0x64, 0x00, 0x00, 0x00, 0x00, 0x02, 0x00, 0x00, 0x00, 0x01, 0x00, 0x00, 0x00, 0x04, 0x00, 0x00, 0x00, 0xc6, 0xdb, 0xff, 0xff, 0x00, 0x00, 0x00, 0x01, 0x18, 0x00, 0x00, 0x00, 0x20, 0x00, 0x00, 0x00, 0x3c, 0x00, 0x00, 0x00, 0x2c, 0x00, 0x00, 0x00, 0x00, 0x00, 0x00, 0x09, 0x88, 0x00, 0x00, 0x00, 0x02, 0x00, 0x00, 0x00, 0xff, 0xff, 0xff, 0xff, 0x18, 0x00, 0x00, 0x00, 0xac, 0xdb, 0xff, 0xff, 0x08, 0x00, 0x00, 0x00, 0x10, 0x00, 0x00, 0x00, 0x01, 0x00, 0x00, 0x00, 0x80, 0xff, 0xff, 0xff, 0xff, 0xff, 0xff, 0xff, 0x01, 0x00, 0x00, 0x00, 0x9b, 0x3e, 0x13, 0x3c, 0x52, 0x00, 0x00, 0x00, 0x73, 0x65, 0x71, 0x75, 0x65, 0x6e, 0x74, 0x69, 0x61, 0x6c, 0x5f, 0x32, 0x2f, 0x64, 0x65, 0x6e, 0x73, 0x65, 0x5f, 0x34, 0x2f, 0x4d, 0x61, 0x74, 0x4d, 0x75, 0x6c, 0x3b, 0x73, 0x65, 0x71, 0x75, 0x65, 0x6e, 0x74, 0x69, 0x61, 0x6c, 0x5f, 0x32, 0x2f, 0x64, 0x65, 0x6e, 0x73, 0x65, 0x5f, 0x34, 0x2f, 0x52, 0x65, 0x6c, 0x75, 0x3b, 0x73, 0x65, 0x71, 0x75, 0x65, 0x6e, 0x74, 0x69, 0x61, 0x6c, 0x5f, 0x32, 0x2f, 0x64, 0x65, 0x6e, 0x73, 0x65, 0x5f, 0x34, 0x2f, 0x42, 0x69, 0x61, 0x73, 0x41, 0x64, 0x64, 0x00, 0x00, 0x02, 0x00, 0x00, 0x00, 0x01, 0x00, 0x00, 0x00, 0x18, 0x00, 0x00, 0x00, 0x76, 0xdc, 0xff, 0xff, 0x00, 0x00, 0x00, 0x01, 0x18, 0x00, 0x00, 0x00, 0x20, 0x00, 0x00, 0x00, 0x3c, 0x00, 0x00, 0x00, 0x2b, 0x00, 0x00, 0x00, 0x00, 0x00, 0x00, 0x09, 0x64, 0x00, 0x00, 0x00, 0x02, 0x00, 0x00, 0x00, 0xff, 0xff, 0xff, 0xff, 0x20, 0x00, 0x00, 0x00, 0x5c, 0xdc, 0xff, 0xff, 0x08, 0x00, 0x00, 0x00, 0x10, 0x00, 0x00, 0x00, 0x01, 0x00, 0x00, 0x00, 0x80, 0xff, 0xff, 0xff, 0xff, 0xff, 0xff, 0xff, 0x01, 0x00, 0x00, 0x00, 0x78, 0xb4, 0xfc, 0x3b, 0x2c, 0x00, 0x00, 0x00, 0x73, 0x65, 0x71, 0x75, 0x65, 0x6e, 0x74, 0x69, 0x61, 0x6c, 0x5f, 0x32, 0x2f, 0x67, 0x6c, 0x6f, 0x62, 0x61, 0x6c, 0x5f, 0x61, 0x76, 0x65, 0x72, 0x61, 0x67, 0x65, 0x5f, 0x70, 0x6f, 0x6f, 0x6c, 0x69, 0x6e, 0x67, 0x31, 0x64, 0x5f, 0x32, 0x2f, 0x4d, 0x65, 0x61, 0x6e, 0x00, 0x00, 0x00, 0x00, 0x02, 0x00, 0x00, 0x00, 0x01, 0x00, 0x00, 0x00, 0x20, 0x00, 0x00, 0x00, 0x02, 0xdd, 0xff, 0xff, 0x00, 0x00, 0x00, 0x01, 0x18, 0x00, 0x00, 0x00, 0x24, 0x00, 0x00, 0x00, 0x44, 0x00, 0x00, 0x00, 0x2a, 0x00, 0x00, 0x00, 0x00, 0x00, 0x00, 0x09, 0xc8, 0x00, 0x00, 0x00, 0x03, 0x00, 0x00, 0x00, 0xff, 0xff, 0xff, 0xff, 0x19, 0x00, 0x00, 0x00, 0x20, 0x00, 0x00, 0x00, 0xec, 0xdc, 0xff, 0xff, 0x08, 0x00, 0x00, 0x00, 0x14, 0x00, 0x00, 0x00, 0x01, 0x00, 0x00, 0x00, 0x80, 0xff, 0xff, 0xff, 0xff, 0xff, 0xff, 0xff, 0x00, 0x00, 0x00, 0x00, 0x01, 0x00, 0x00, 0x00, 0xe0, 0xfe, 0xaa, 0x3c, 0x8a, 0x00, 0x00, 0x00, 0x73, 0x65, 0x71, 0x75, 0x65, 0x6e, 0x74, 0x69, 0x61, 0x6c, 0x5f, 0x32, 0x2f, 0x63, 0x6f, 0x6e, 0x76, 0x31, 0x64, 0x5f, 0x38, 0x2f, 0x52, 0x65, 0x6c, 0x75, 0x3b, 0x73, 0x65, 0x71, 0x75, 0x65, 0x6e, 0x74, 0x69, 0x61, 0x6c, 0x5f, 0x32, 0x2f, 0x63, 0x6f, 0x6e, 0x76, 0x31, 0x64, 0x5f, 0x38, 0x2f, 0x42, 0x69, 0x61, 0x73, 0x41, 0x64, 0x64, 0x3b, 0x73, 0x65, 0x71, 0x75, 0x65, 0x6e, 0x74, 0x69, 0x61, 0x6c, 0x5f, 0x32, 0x2f, 0x63, 0x6f, 0x6e, 0x76, 0x31, 0x64, 0x5f, 0x38, 0x2f, 0x43, 0x6f, 0x6e, 0x76, 0x31, 0x44, 0x2f, 0x53, 0x71, 0x75, 0x65, 0x65, 0x7a, 0x65, 0x3b, 0x73, 0x65, 0x71, 0x75, 0x65, 0x6e, 0x74, 0x69, 0x61, 0x6c, 0x5f, 0x32, 0x2f, 0x63, 0x6f, 0x6e, 0x76, 0x31, 0x64, 0x5f, 0x38, 0x2f, 0x42, 0x69, 0x61, 0x73, 0x41, 0x64, 0x64, 0x2f, 0x52, 0x65, 0x61, 0x64, 0x56, 0x61, 0x72, 0x69, 0x61, 0x62, 0x6c, 0x65, 0x4f, 0x70, 0x00, 0x00, 0x03, 0x00, 0x00, 0x00, 0x01, 0x00, 0x00, 0x00, 0x19, 0x00, 0x00, 0x00, 0x20, 0x00, 0x00, 0x00, 0xf6, 0xdd, 0xff, 0xff, 0x00, 0x00, 0x00, 0x01, 0x18, 0x00, 0x00, 0x00, 0x28, 0x00, 0x00, 0x00, 0x48, 0x00, 0x00, 0x00, 0x29, 0x00, 0x00, 0x00, 0x00, 0x00, 0x00, 0x09, 0xe8, 0x00, 0x00, 0x00, 0x04, 0x00, 0x00, 0x00, 0xff, 0xff, 0xff, 0xff, 0x01, 0x00, 0x00, 0x00, 0x19, 0x00, 0x00, 0x00, 0x20, 0x00, 0x00, 0x00, 0xe4, 0xdd, 0xff, 0xff, 0x08, 0x00, 0x00, 0x00, 0x14, 0x00, 0x00, 0x00, 0x01, 0x00, 0x00, 0x00, 0x80, 0xff, 0xff, 0xff, 0xff, 0xff, 0xff, 0xff, 0x00, 0x00, 0x00, 0x00, 0x01, 0x00, 0x00, 0x00, 0xe0, 0xfe, 0xaa, 0x3c, 0xa7, 0x00, 0x00, 0x00, 0x73, 0x65, 0x71, 0x75, 0x65, 0x6e, 0x74, 0x69, 0x61, 0x6c, 0x5f, 0x32, 0x2f, 0x63, 0x6f, 0x6e, 0x76, 0x31, 0x64, 0x5f, 0x38, 0x2f, 0x52, 0x65, 0x6c, 0x75, 0x3b, 0x73, 0x65, 0x71, 0x75, 0x65, 0x6e, 0x74, 0x69, 0x61, 0x6c, 0x5f, 0x32, 0x2f, 0x63, 0x6f, 0x6e, 0x76, 0x31, 0x64, 0x5f, 0x38, 0x2f, 0x42, 0x69, 0x61, 0x73, 0x41, 0x64, 0x64, 0x3b, 0x73, 0x65, 0x71, 0x75, 0x65, 0x6e, 0x74, 0x69, 0x61, 0x6c, 0x5f, 0x32, 0x2f, 0x63, 0x6f, 0x6e, 0x76, 0x31, 0x64, 0x5f, 0x38, 0x2f, 0x43, 0x6f, 0x6e, 0x76, 0x31, 0x44, 0x2f, 0x53, 0x71, 0x75, 0x65, 0x65, 0x7a, 0x65, 0x3b, 0x73, 0x65, 0x71, 0x75, 0x65, 0x6e, 0x74, 0x69, 0x61, 0x6c, 0x5f, 0x32, 0x2f, 0x63, 0x6f, 0x6e, 0x76, 0x31, 0x64, 0x5f, 0x38, 0x2f, 0x42, 0x69, 0x61, 0x73, 0x41, 0x64, 0x64, 0x2f, 0x52, 0x65, 0x61, 0x64, 0x56, 0x61, 0x72, 0x69, 0x61, 0x62, 0x6c, 0x65, 0x4f, 0x70, 0x3b, 0x73, 0x65, 0x71, 0x75, 0x65, 0x6e, 0x74, 0x69, 0x61, 0x6c, 0x5f, 0x32, 0x2f, 0x63, 0x6f, 0x6e, 0x76, 0x31, 0x64, 0x5f, 0x38, 0x2f, 0x43, 0x6f, 0x6e, 0x76, 0x31, 0x44, 0x00, 0x04, 0x00, 0x00, 0x00, 0x01, 0x00, 0x00, 0x00, 0x01, 0x00, 0x00, 0x00, 0x19, 0x00, 0x00, 0x00, 0x20, 0x00, 0x00, 0x00, 0x0e, 0xdf, 0xff, 0xff, 0x00, 0x00, 0x00, 0x01, 0x18, 0x00, 0x00, 0x00, 0x28, 0x00, 0x00, 0x00, 0x44, 0x00, 0x00, 0x00, 0x28, 0x00, 0x00, 0x00, 0x00, 0x00, 0x00, 0x09, 0x64, 0x00, 0x00, 0x00, 0x04, 0x00, 0x00, 0x00, 0xff, 0xff, 0xff, 0xff, 0x01, 0x00, 0x00, 0x00, 0x19, 0x00, 0x00, 0x00, 0x18, 0x00, 0x00, 0x00, 0xfc, 0xde, 0xff, 0xff, 0x08, 0x00, 0x00, 0x00, 0x10, 0x00, 0x00, 0x00, 0x01, 0x00, 0x00, 0x00, 0x93, 0xff, 0xff, 0xff, 0xff, 0xff, 0xff, 0xff, 0x01, 0x00, 0x00, 0x00, 0x7e, 0x49, 0xa2, 0x3c, 0x27, 0x00, 0x00, 0x00, 0x73, 0x65, 0x71, 0x75, 0x65, 0x6e, 0x74, 0x69, 0x61, 0x6c, 0x5f, 0x32, 0x2f, 0x63, 0x6f, 0x6e, 0x76, 0x31, 0x64, 0x5f, 0x38, 0x2f, 0x43, 0x6f, 0x6e, 0x76, 0x31, 0x44, 0x2f, 0x45, 0x78, 0x70, 0x61, 0x6e, 0x64, 0x44, 0x69, 0x6d, 0x73, 0x00, 0x04, 0x00, 0x00, 0x00, 0x01, 0x00, 0x00, 0x00, 0x01, 0x00, 0x00, 0x00, 0x19, 0x00, 0x00, 0x00, 0x18, 0x00, 0x00, 0x00, 0xa2, 0xdf, 0xff, 0xff, 0x00, 0x00, 0x00, 0x01, 0x18, 0x00, 0x00, 0x00, 0x24, 0x00, 0x00, 0x00, 0x40, 0x00, 0x00, 0x00, 0x27, 0x00, 0x00, 0x00, 0x00, 0x00, 0x00, 0x09, 0x60, 0x00, 0x00, 0x00, 0x03, 0x00, 0x00, 0x00, 0xff, 0xff, 0xff, 0xff, 0x19, 0x00, 0x00, 0x00, 0x18, 0x00, 0x00, 0x00, 0x8c, 0xdf, 0xff, 0xff, 0x08, 0x00, 0x00, 0x00, 0x10, 0x00, 0x00, 0x00, 0x01, 0x00, 0x00, 0x00, 0x93, 0xff, 0xff, 0xff, 0xff, 0xff, 0xff, 0xff, 0x01, 0x00, 0x00, 0x00, 0x7e, 0x49, 0xa2, 0x3c, 0x25, 0x00, 0x00, 0x00, 0x73, 0x65, 0x71, 0x75, 0x65, 0x6e, 0x74, 0x69, 0x61, 0x6c, 0x5f, 0x32, 0x2f, 0x6d, 0x61, 0x78, 0x5f, 0x70, 0x6f, 0x6f, 0x6c, 0x69, 0x6e, 0x67, 0x31, 0x64, 0x5f, 0x35, 0x2f, 0x53, 0x71, 0x75, 0x65, 0x65, 0x7a, 0x65, 0x31, 0x00, 0x00, 0x00, 0x03, 0x00, 0x00, 0x00, 0x01, 0x00, 0x00, 0x00, 0x19, 0x00, 0x00, 0x00, 0x18, 0x00, 0x00, 0x00, 0x2e, 0xe0, 0xff, 0xff, 0x00, 0x00, 0x00, 0x01, 0x18, 0x00, 0x00, 0x00, 0x28, 0x00, 0x00, 0x00, 0x48, 0x00, 0x00, 0x00, 0x26, 0x00, 0x00, 0x00, 0x00, 0x00, 0x00, 0x09, 0x68, 0x00, 0x00, 0x00, 0x04, 0x00, 0x00, 0x00, 0xff, 0xff, 0xff, 0xff, 0x19, 0x00, 0x00, 0x00, 0x01, 0x00, 0x00, 0x00, 0x18, 0x00, 0x00, 0x00, 0x1c, 0xe0, 0xff, 0xff, 0x08, 0x00, 0x00, 0x00, 0x14, 0x00, 0x00, 0x00, 0x01, 0x00, 0x00, 0x00, 0x93, 0xff, 0xff, 0xff, 0xff, 0xff, 0xff, 0xff, 0x00, 0x00, 0x00, 0x00, 0x01, 0x00, 0x00, 0x00, 0x7e, 0x49, 0xa2, 0x3c, 0x24, 0x00, 0x00, 0x00, 0x73, 0x65, 0x71, 0x75, 0x65, 0x6e, 0x74, 0x69, 0x61, 0x6c, 0x5f, 0x32, 0x2f, 0x6d, 0x61, 0x78, 0x5f, 0x70, 0x6f, 0x6f, 0x6c, 0x69, 0x6e, 0x67, 0x31, 0x64, 0x5f, 0x35, 0x2f, 0x4d, 0x61, 0x78, 0x50, 0x6f, 0x6f, 0x6c, 0x00, 0x00, 0x00, 0x00, 0x04, 0x00, 0x00, 0x00, 0x01, 0x00, 0x00, 0x00, 0x19, 0x00, 0x00, 0x00, 0x01, 0x00, 0x00, 0x00, 0x18, 0x00, 0x00, 0x00, 0xc6, 0xe0, 0xff, 0xff, 0x00, 0x00, 0x00, 0x01, 0x18, 0x00, 0x00, 0x00, 0x28, 0x00, 0x00, 0x00, 0x44, 0x00, 0x00, 0x00, 0x25, 0x00, 0x00, 0x00, 0x00, 0x00, 0x00, 0x09, 0x64, 0x00, 0x00, 0x00, 0x04, 0x00, 0x00, 0x00, 0xff, 0xff, 0xff, 0xff, 0x32, 0x00, 0x00, 0x00, 0x01, 0x00, 0x00, 0x00, 0x18, 0x00, 0x00, 0x00, 0xb4, 0xe0, 0xff, 0xff, 0x08, 0x00, 0x00, 0x00, 0x10, 0x00, 0x00, 0x00, 0x01, 0x00, 0x00, 0x00, 0x93, 0xff, 0xff, 0xff, 0xff, 0xff, 0xff, 0xff, 0x01, 0x00, 0x00, 0x00, 0x7e, 0x49, 0xa2, 0x3c, 0x27, 0x00, 0x00, 0x00, 0x73, 0x65, 0x71, 0x75, 0x65, 0x6e, 0x74, 0x69, 0x61, 0x6c, 0x5f, 0x32, 0x2f, 0x6d, 0x61, 0x78, 0x5f, 0x70, 0x6f, 0x6f, 0x6c, 0x69, 0x6e, 0x67, 0x31, 0x64, 0x5f, 0x35, 0x2f, 0x45, 0x78, 0x70, 0x61, 0x6e, 0x64, 0x44, 0x69, 0x6d, 0x73, 0x00, 0x04, 0x00, 0x00, 0x00, 0x01, 0x00, 0x00, 0x00, 0x32, 0x00, 0x00, 0x00, 0x01, 0x00, 0x00, 0x00, 0x18, 0x00, 0x00, 0x00, 0x5a, 0xe1, 0xff, 0xff, 0x00, 0x00, 0x00, 0x01, 0x18, 0x00, 0x00, 0x00, 0x24, 0x00, 0x00, 0x00, 0x44, 0x00, 0x00, 0x00, 0x24, 0x00, 0x00, 0x00, 0x00, 0x00, 0x00, 0x09, 0x90, 0x01, 0x00, 0x00, 0x03, 0x00, 0x00, 0x00, 0xff, 0xff, 0xff, 0xff, 0x32, 0x00, 0x00, 0x00, 0x18, 0x00, 0x00, 0x00, 0x44, 0xe1, 0xff, 0xff, 0x08, 0x00, 0x00, 0x00, 0x14, 0x00, 0x00, 0x00, 0x01, 0x00, 0x00, 0x00, 0x93, 0xff, 0xff, 0xff, 0xff, 0xff, 0xff, 0xff, 0x00, 0x00, 0x00, 0x00, 0x01, 0x00, 0x00, 0x00, 0x7e, 0x49, 0xa2, 0x3c, 0x53, 0x01, 0x00, 0x00, 0x73, 0x65, 0x71, 0x75, 0x65, 0x6e, 0x74, 0x69, 0x61, 0x6c, 0x5f, 0x32, 0x2f, 0x62, 0x61, 0x74, 0x63, 0x68, 0x5f, 0x6e, 0x6f, 0x72, 0x6d, 0x61, 0x6c, 0x69, 0x7a, 0x61, 0x74, 0x69, 0x6f, 0x6e, 0x5f, 0x35, 0x2f, 0x62, 0x61, 0x74, 0x63, 0x68, 0x6e, 0x6f, 0x72, 0x6d, 0x2f, 0x61, 0x64, 0x64, 0x5f, 0x31, 0x3b, 0x73, 0x65, 0x71, 0x75, 0x65, 0x6e, 0x74, 0x69, 0x61, 0x6c, 0x5f, 0x32, 0x2f, 0x63, 0x6f, 0x6e, 0x76, 0x31, 0x64, 0x5f, 0x37, 0x2f, 0x43, 0x6f, 0x6e, 0x76, 0x31, 0x44, 0x2f, 0x53, 0x71, 0x75, 0x65, 0x65, 0x7a, 0x65, 0x3b, 0x73, 0x65, 0x71, 0x75, 0x65, 0x6e, 0x74, 0x69, 0x61, 0x6c, 0x5f, 0x32, 0x2f, 0x62, 0x61, 0x74, 0x63, 0x68, 0x5f, 0x6e, 0x6f, 0x72, 0x6d, 0x61, 0x6c, 0x69, 0x7a, 0x61, 0x74, 0x69, 0x6f, 0x6e, 0x5f, 0x35, 0x2f, 0x62, 0x61, 0x74, 0x63, 0x68, 0x6e, 0x6f, 0x72, 0x6d, 0x2f, 0x6d, 0x75, 0x6c, 0x5f, 0x31, 0x3b, 0x73, 0x65, 0x71, 0x75, 0x65, 0x6e, 0x74, 0x69, 0x61, 0x6c, 0x5f, 0x32, 0x2f, 0x63, 0x6f, 0x6e, 0x76, 0x31, 0x64, 0x5f, 0x37, 0x2f, 0x52, 0x65, 0x6c, 0x75, 0x3b, 0x73, 0x65, 0x71, 0x75, 0x65, 0x6e, 0x74, 0x69, 0x61, 0x6c, 0x5f, 0x32, 0x2f, 0x63, 0x6f, 0x6e, 0x76, 0x31, 0x64, 0x5f, 0x37, 0x2f, 0x42, 0x69, 0x61, 0x73, 0x41, 0x64, 0x64, 0x3b, 0x73, 0x65, 0x71, 0x75, 0x65, 0x6e, 0x74, 0x69, 0x61, 0x6c, 0x5f, 0x32, 0x2f, 0x63, 0x6f, 0x6e, 0x76, 0x31, 0x64, 0x5f, 0x37, 0x2f, 0x42, 0x69, 0x61, 0x73, 0x41, 0x64, 0x64, 0x2f, 0x52, 0x65, 0x61, 0x64, 0x56, 0x61, 0x72, 0x69, 0x61, 0x62, 0x6c, 0x65, 0x4f, 0x70, 0x3b, 0x73, 0x65, 0x71, 0x75, 0x65, 0x6e, 0x74, 0x69, 0x61, 0x6c, 0x5f, 0x32, 0x2f, 0x62, 0x61, 0x74, 0x63, 0x68, 0x5f, 0x6e, 0x6f, 0x72, 0x6d, 0x61, 0x6c, 0x69, 0x7a, 0x61, 0x74, 0x69, 0x6f, 0x6e, 0x5f, 0x35, 0x2f, 0x62, 0x61, 0x74, 0x63, 0x68, 0x6e, 0x6f, 0x72, 0x6d, 0x2f, 0x6d, 0x75, 0x6c, 0x3b, 0x73, 0x65, 0x71, 0x75, 0x65, 0x6e, 0x74, 0x69, 0x61, 0x6c, 0x5f, 0x32, 0x2f, 0x62, 0x61, 0x74, 0x63, 0x68, 0x5f, 0x6e, 0x6f, 0x72, 0x6d, 0x61, 0x6c, 0x69, 0x7a, 0x61, 0x74, 0x69, 0x6f, 0x6e, 0x5f, 0x35, 0x2f, 0x62, 0x61, 0x74, 0x63, 0x68, 0x6e, 0x6f, 0x72, 0x6d, 0x2f, 0x73, 0x75, 0x62, 0x31, 0x00, 0x03, 0x00, 0x00, 0x00, 0x01, 0x00, 0x00, 0x00, 0x32, 0x00, 0x00, 0x00, 0x18, 0x00, 0x00, 0x00, 0x16, 0xe3, 0xff, 0xff, 0x00, 0x00, 0x00, 0x01, 0x18, 0x00, 0x00, 0x00, 0x28, 0x00, 0x00, 0x00, 0x44, 0x00, 0x00, 0x00, 0x23, 0x00, 0x00, 0x00, 0x00, 0x00, 0x00, 0x09, 0x90, 0x01, 0x00, 0x00, 0x04, 0x00, 0x00, 0x00, 0xff, 0xff, 0xff, 0xff, 0x01, 0x00, 0x00, 0x00, 0x32, 0x00, 0x00, 0x00, 0x18, 0x00, 0x00, 0x00, 0x04, 0xe3, 0xff, 0xff, 0x08, 0x00, 0x00, 0x00, 0x10, 0x00, 0x00, 0x00, 0x01, 0x00, 0x00, 0x00, 0x93, 0xff, 0xff, 0xff, 0xff, 0xff, 0xff, 0xff, 0x01, 0x00, 0x00, 0x00, 0x7e, 0x49, 0xa2, 0x3c, 0x52, 0x01, 0x00, 0x00, 0x73, 0x65, 0x71, 0x75, 0x65, 0x6e, 0x74, 0x69, 0x61, 0x6c, 0x5f, 0x32, 0x2f, 0x62, 0x61, 0x74, 0x63, 0x68, 0x5f, 0x6e, 0x6f, 0x72, 0x6d, 0x61, 0x6c, 0x69, 0x7a, 0x61, 0x74, 0x69, 0x6f, 0x6e, 0x5f, 0x35, 0x2f, 0x62, 0x61, 0x74, 0x63, 0x68, 0x6e, 0x6f, 0x72, 0x6d, 0x2f, 0x61, 0x64, 0x64, 0x5f, 0x31, 0x3b, 0x73, 0x65, 0x71, 0x75, 0x65, 0x6e, 0x74, 0x69, 0x61, 0x6c, 0x5f, 0x32, 0x2f, 0x63, 0x6f, 0x6e, 0x76, 0x31, 0x64, 0x5f, 0x37, 0x2f, 0x43, 0x6f, 0x6e, 0x76, 0x31, 0x44, 0x2f, 0x53, 0x71, 0x75, 0x65, 0x65, 0x7a, 0x65, 0x3b, 0x73, 0x65, 0x71, 0x75, 0x65, 0x6e, 0x74, 0x69, 0x61, 0x6c, 0x5f, 0x32, 0x2f, 0x62, 0x61, 0x74, 0x63, 0x68, 0x5f, 0x6e, 0x6f, 0x72, 0x6d, 0x61, 0x6c, 0x69, 0x7a, 0x61, 0x74, 0x69, 0x6f, 0x6e, 0x5f, 0x35, 0x2f, 0x62, 0x61, 0x74, 0x63, 0x68, 0x6e, 0x6f, 0x72, 0x6d, 0x2f, 0x6d, 0x75, 0x6c, 0x5f, 0x31, 0x3b, 0x73, 0x65, 0x71, 0x75, 0x65, 0x6e, 0x74, 0x69, 0x61, 0x6c, 0x5f, 0x32, 0x2f, 0x63, 0x6f, 0x6e, 0x76, 0x31, 0x64, 0x5f, 0x37, 0x2f, 0x52, 0x65, 0x6c, 0x75, 0x3b, 0x73, 0x65, 0x71, 0x75, 0x65, 0x6e, 0x74, 0x69, 0x61, 0x6c, 0x5f, 0x32, 0x2f, 0x63, 0x6f, 0x6e, 0x76, 0x31, 0x64, 0x5f, 0x37, 0x2f, 0x42, 0x69, 0x61, 0x73, 0x41, 0x64, 0x64, 0x3b, 0x73, 0x65, 0x71, 0x75, 0x65, 0x6e, 0x74, 0x69, 0x61, 0x6c, 0x5f, 0x32, 0x2f, 0x63, 0x6f, 0x6e, 0x76, 0x31, 0x64, 0x5f, 0x37, 0x2f, 0x42, 0x69, 0x61, 0x73, 0x41, 0x64, 0x64, 0x2f, 0x52, 0x65, 0x61, 0x64, 0x56, 0x61, 0x72, 0x69, 0x61, 0x62, 0x6c, 0x65, 0x4f, 0x70, 0x3b, 0x73, 0x65, 0x71, 0x75, 0x65, 0x6e, 0x74, 0x69, 0x61, 0x6c, 0x5f, 0x32, 0x2f, 0x62, 0x61, 0x74, 0x63, 0x68, 0x5f, 0x6e, 0x6f, 0x72, 0x6d, 0x61, 0x6c, 0x69, 0x7a, 0x61, 0x74, 0x69, 0x6f, 0x6e, 0x5f, 0x35, 0x2f, 0x62, 0x61, 0x74, 0x63, 0x68, 0x6e, 0x6f, 0x72, 0x6d, 0x2f, 0x6d, 0x75, 0x6c, 0x3b, 0x73, 0x65, 0x71, 0x75, 0x65, 0x6e, 0x74, 0x69, 0x61, 0x6c, 0x5f, 0x32, 0x2f, 0x62, 0x61, 0x74, 0x63, 0x68, 0x5f, 0x6e, 0x6f, 0x72, 0x6d, 0x61, 0x6c, 0x69, 0x7a, 0x61, 0x74, 0x69, 0x6f, 0x6e, 0x5f, 0x35, 0x2f, 0x62, 0x61, 0x74, 0x63, 0x68, 0x6e, 0x6f, 0x72, 0x6d, 0x2f, 0x73, 0x75, 0x62, 0x00, 0x00, 0x04, 0x00, 0x00, 0x00, 0x01, 0x00, 0x00, 0x00, 0x01, 0x00, 0x00, 0x00, 0x32, 0x00, 0x00, 0x00, 0x18, 0x00, 0x00, 0x00, 0xd6, 0xe4, 0xff, 0xff, 0x00, 0x00, 0x00, 0x01, 0x18, 0x00, 0x00, 0x00, 0x28, 0x00, 0x00, 0x00, 0x48, 0x00, 0x00, 0x00, 0x22, 0x00, 0x00, 0x00, 0x00, 0x00, 0x00, 0x09, 0x30, 0x01, 0x00, 0x00, 0x04, 0x00, 0x00, 0x00, 0xff, 0xff, 0xff, 0xff, 0x01, 0x00, 0x00, 0x00, 0x32, 0x00, 0x00, 0x00, 0x18, 0x00, 0x00, 0x00, 0xc4, 0xe4, 0xff, 0xff, 0x08, 0x00, 0x00, 0x00, 0x14, 0x00, 0x00, 0x00, 0x01, 0x00, 0x00, 0x00, 0x80, 0xff, 0xff, 0xff, 0xff, 0xff, 0xff, 0xff, 0x00, 0x00, 0x00, 0x00, 0x01, 0x00, 0x00, 0x00, 0xf8, 0xe2, 0x9e, 0x3c, 0xee, 0x00, 0x00, 0x00, 0x73, 0x65, 0x71, 0x75, 0x65, 0x6e, 0x74, 0x69, 0x61, 0x6c, 0x5f, 0x32, 0x2f, 0x62, 0x61, 0x74, 0x63, 0x68, 0x5f, 0x6e, 0x6f, 0x72, 0x6d, 0x61, 0x6c, 0x69, 0x7a, 0x61, 0x74, 0x69, 0x6f, 0x6e, 0x5f, 0x35, 0x2f, 0x62, 0x61, 0x74, 0x63, 0x68, 0x6e, 0x6f, 0x72, 0x6d, 0x2f, 0x6d, 0x75, 0x6c, 0x5f, 0x31, 0x3b, 0x73, 0x65, 0x71, 0x75, 0x65, 0x6e, 0x74, 0x69, 0x61, 0x6c, 0x5f, 0x32, 0x2f, 0x63, 0x6f, 0x6e, 0x76, 0x31, 0x64, 0x5f, 0x37, 0x2f, 0x43, 0x6f, 0x6e, 0x76, 0x31, 0x44, 0x2f, 0x53, 0x71, 0x75, 0x65, 0x65, 0x7a, 0x65, 0x3b, 0x73, 0x65, 0x71, 0x75, 0x65, 0x6e, 0x74, 0x69, 0x61, 0x6c, 0x5f, 0x32, 0x2f, 0x63, 0x6f, 0x6e, 0x76, 0x31, 0x64, 0x5f, 0x37, 0x2f, 0x52, 0x65, 0x6c, 0x75, 0x3b, 0x73, 0x65, 0x71, 0x75, 0x65, 0x6e, 0x74, 0x69, 0x61, 0x6c, 0x5f, 0x32, 0x2f, 0x63, 0x6f, 0x6e, 0x76, 0x31, 0x64, 0x5f, 0x37, 0x2f, 0x42, 0x69, 0x61, 0x73, 0x41, 0x64, 0x64, 0x3b, 0x73, 0x65, 0x71, 0x75, 0x65, 0x6e, 0x74, 0x69, 0x61, 0x6c, 0x5f, 0x32, 0x2f, 0x63, 0x6f, 0x6e, 0x76, 0x31, 0x64, 0x5f, 0x37, 0x2f, 0x42, 0x69, 0x61, 0x73, 0x41, 0x64, 0x64, 0x2f, 0x52, 0x65, 0x61, 0x64, 0x56, 0x61, 0x72, 0x69, 0x61, 0x62, 0x6c, 0x65, 0x4f, 0x70, 0x3b, 0x73, 0x65, 0x71, 0x75, 0x65, 0x6e, 0x74, 0x69, 0x61, 0x6c, 0x5f, 0x32, 0x2f, 0x62, 0x61, 0x74, 0x63, 0x68, 0x5f, 0x6e, 0x6f, 0x72, 0x6d, 0x61, 0x6c, 0x69, 0x7a, 0x61, 0x74, 0x69, 0x6f, 0x6e, 0x5f, 0x35, 0x2f, 0x62, 0x61, 0x74, 0x63, 0x68, 0x6e, 0x6f, 0x72, 0x6d, 0x2f, 0x6d, 0x75, 0x6c, 0x00, 0x00, 0x04, 0x00, 0x00, 0x00, 0x01, 0x00, 0x00, 0x00, 0x01, 0x00, 0x00, 0x00, 0x32, 0x00, 0x00, 0x00, 0x18, 0x00, 0x00, 0x00, 0x36, 0xe6, 0xff, 0xff, 0x00, 0x00, 0x00, 0x01, 0x18, 0x00, 0x00, 0x00, 0x28, 0x00, 0x00, 0x00, 0x48, 0x00, 0x00, 0x00, 0x21, 0x00, 0x00, 0x00, 0x00, 0x00, 0x00, 0x09, 0xe8, 0x00, 0x00, 0x00, 0x04, 0x00, 0x00, 0x00, 0xff, 0xff, 0xff, 0xff, 0x01, 0x00, 0x00, 0x00, 0x32, 0x00, 0x00, 0x00, 0x18, 0x00, 0x00, 0x00, 0x24, 0xe6, 0xff, 0xff, 0x08, 0x00, 0x00, 0x00, 0x14, 0x00, 0x00, 0x00, 0x01, 0x00, 0x00, 0x00, 0x80, 0xff, 0xff, 0xff, 0xff, 0xff, 0xff, 0xff, 0x00, 0x00, 0x00, 0x00, 0x01, 0x00, 0x00, 0x00, 0xff, 0x61, 0x85, 0x3c, 0xa7, 0x00, 0x00, 0x00, 0x73, 0x65, 0x71, 0x75, 0x65, 0x6e, 0x74, 0x69, 0x61, 0x6c, 0x5f, 0x32, 0x2f, 0x63, 0x6f, 0x6e, 0x76, 0x31, 0x64, 0x5f, 0x37, 0x2f, 0x52, 0x65, 0x6c, 0x75, 0x3b, 0x73, 0x65, 0x71, 0x75, 0x65, 0x6e, 0x74, 0x69, 0x61, 0x6c, 0x5f, 0x32, 0x2f, 0x63, 0x6f, 0x6e, 0x76, 0x31, 0x64, 0x5f, 0x37, 0x2f, 0x42, 0x69, 0x61, 0x73, 0x41, 0x64, 0x64, 0x3b, 0x73, 0x65, 0x71, 0x75, 0x65, 0x6e, 0x74, 0x69, 0x61, 0x6c, 0x5f, 0x32, 0x2f, 0x63, 0x6f, 0x6e, 0x76, 0x31, 0x64, 0x5f, 0x37, 0x2f, 0x43, 0x6f, 0x6e, 0x76, 0x31, 0x44, 0x2f, 0x53, 0x71, 0x75, 0x65, 0x65, 0x7a, 0x65, 0x3b, 0x73, 0x65, 0x71, 0x75, 0x65, 0x6e, 0x74, 0x69, 0x61, 0x6c, 0x5f, 0x32, 0x2f, 0x63, 0x6f, 0x6e, 0x76, 0x31, 0x64, 0x5f, 0x37, 0x2f, 0x42, 0x69, 0x61, 0x73, 0x41, 0x64, 0x64, 0x2f, 0x52, 0x65, 0x61, 0x64, 0x56, 0x61, 0x72, 0x69, 0x61, 0x62, 0x6c, 0x65, 0x4f, 0x70, 0x3b, 0x73, 0x65, 0x71, 0x75, 0x65, 0x6e, 0x74, 0x69, 0x61, 0x6c, 0x5f, 0x32, 0x2f, 0x63, 0x6f, 0x6e, 0x76, 0x31, 0x64, 0x5f, 0x37, 0x2f, 0x43, 0x6f, 0x6e, 0x76, 0x31, 0x44, 0x00, 0x04, 0x00, 0x00, 0x00, 0x01, 0x00, 0x00, 0x00, 0x01, 0x00, 0x00, 0x00, 0x32, 0x00, 0x00, 0x00, 0x18, 0x00, 0x00, 0x00, 0x4e, 0xe7, 0xff, 0xff, 0x00, 0x00, 0x00, 0x01, 0x18, 0x00, 0x00, 0x00, 0x28, 0x00, 0x00, 0x00, 0x44, 0x00, 0x00, 0x00, 0x20, 0x00, 0x00, 0x00, 0x00, 0x00, 0x00, 0x09, 0x64, 0x00, 0x00, 0x00, 0x04, 0x00, 0x00, 0x00, 0xff, 0xff, 0xff, 0xff, 0x01, 0x00, 0x00, 0x00, 0x32, 0x00, 0x00, 0x00, 0x10, 0x00, 0x00, 0x00, 0x3c, 0xe7, 0xff, 0xff, 0x08, 0x00, 0x00, 0x00, 0x10, 0x00, 0x00, 0x00, 0x01, 0x00, 0x00, 0x00, 0x88, 0xff, 0xff, 0xff, 0xff, 0xff, 0xff, 0xff, 0x01, 0x00, 0x00, 0x00, 0xb2, 0xb5, 0x09, 0x3d, 0x27, 0x00, 0x00, 0x00, 0x73, 0x65, 0x71, 0x75, 0x65, 0x6e, 0x74, 0x69, 0x61, 0x6c, 0x5f, 0x32, 0x2f, 0x63, 0x6f, 0x6e, 0x76, 0x31, 0x64, 0x5f, 0x37, 0x2f, 0x43, 0x6f, 0x6e, 0x76, 0x31, 0x44, 0x2f, 0x45, 0x78, 0x70, 0x61, 0x6e, 0x64, 0x44, 0x69, 0x6d, 0x73, 0x00, 0x04, 0x00, 0x00, 0x00, 0x01, 0x00, 0x00, 0x00, 0x01, 0x00, 0x00, 0x00, 0x32, 0x00, 0x00, 0x00, 0x10, 0x00, 0x00, 0x00, 0xe2, 0xe7, 0xff, 0xff, 0x00, 0x00, 0x00, 0x01, 0x18, 0x00, 0x00, 0x00, 0x24, 0x00, 0x00, 0x00, 0x40, 0x00, 0x00, 0x00, 0x1f, 0x00, 0x00, 0x00, 0x00, 0x00, 0x00, 0x09, 0x60, 0x00, 0x00, 0x00, 0x03, 0x00, 0x00, 0x00, 0xff, 0xff, 0xff, 0xff, 0x32, 0x00, 0x00, 0x00, 0x10, 0x00, 0x00, 0x00, 0xcc, 0xe7, 0xff, 0xff, 0x08, 0x00, 0x00, 0x00, 0x10, 0x00, 0x00, 0x00, 0x01, 0x00, 0x00, 0x00, 0x88, 0xff, 0xff, 0xff, 0xff, 0xff, 0xff, 0xff, 0x01, 0x00, 0x00, 0x00, 0xb2, 0xb5, 0x09, 0x3d, 0x25, 0x00, 0x00, 0x00, 0x73, 0x65, 0x71, 0x75, 0x65, 0x6e, 0x74, 0x69, 0x61, 0x6c, 0x5f, 0x32, 0x2f, 0x6d, 0x61, 0x78, 0x5f, 0x70, 0x6f, 0x6f, 0x6c, 0x69, 0x6e, 0x67, 0x31, 0x64, 0x5f, 0x34, 0x2f, 0x53, 0x71, 0x75, 0x65, 0x65, 0x7a, 0x65, 0x31, 0x00, 0x00, 0x00, 0x03, 0x00, 0x00, 0x00, 0x01, 0x00, 0x00, 0x00, 0x32, 0x00, 0x00, 0x00, 0x10, 0x00, 0x00, 0x00, 0x6e, 0xe8, 0xff, 0xff, 0x00, 0x00, 0x00, 0x01, 0x18, 0x00, 0x00, 0x00, 0x28, 0x00, 0x00, 0x00, 0x48, 0x00, 0x00, 0x00, 0x1e, 0x00, 0x00, 0x00, 0x00, 0x00, 0x00, 0x09, 0x68, 0x00, 0x00, 0x00, 0x04, 0x00, 0x00, 0x00, 0xff, 0xff, 0xff, 0xff, 0x32, 0x00, 0x00, 0x00, 0x01, 0x00, 0x00, 0x00, 0x10, 0x00, 0x00, 0x00, 0x5c, 0xe8, 0xff, 0xff, 0x08, 0x00, 0x00, 0x00, 0x14, 0x00, 0x00, 0x00, 0x01, 0x00, 0x00, 0x00, 0x88, 0xff, 0xff, 0xff, 0xff, 0xff, 0xff, 0xff, 0x00, 0x00, 0x00, 0x00, 0x01, 0x00, 0x00, 0x00, 0xb2, 0xb5, 0x09, 0x3d, 0x24, 0x00, 0x00, 0x00, 0x73, 0x65, 0x71, 0x75, 0x65, 0x6e, 0x74, 0x69, 0x61, 0x6c, 0x5f, 0x32, 0x2f, 0x6d, 0x61, 0x78, 0x5f, 0x70, 0x6f, 0x6f, 0x6c, 0x69, 0x6e, 0x67, 0x31, 0x64, 0x5f, 0x34, 0x2f, 0x4d, 0x61, 0x78, 0x50, 0x6f, 0x6f, 0x6c, 0x00, 0x00, 0x00, 0x00, 0x04, 0x00, 0x00, 0x00, 0x01, 0x00, 0x00, 0x00, 0x32, 0x00, 0x00, 0x00, 0x01, 0x00, 0x00, 0x00, 0x10, 0x00, 0x00, 0x00, 0x06, 0xe9, 0xff, 0xff, 0x00, 0x00, 0x00, 0x01, 0x18, 0x00, 0x00, 0x00, 0x28, 0x00, 0x00, 0x00, 0x44, 0x00, 0x00, 0x00, 0x1d, 0x00, 0x00, 0x00, 0x00, 0x00, 0x00, 0x09, 0x64, 0x00, 0x00, 0x00, 0x04, 0x00, 0x00, 0x00, 0xff, 0xff, 0xff, 0xff, 0x64, 0x00, 0x00, 0x00, 0x01, 0x00, 0x00, 0x00, 0x10, 0x00, 0x00, 0x00, 0xf4, 0xe8, 0xff, 0xff, 0x08, 0x00, 0x00, 0x00, 0x10, 0x00, 0x00, 0x00, 0x01, 0x00, 0x00, 0x00, 0x88, 0xff, 0xff, 0xff, 0xff, 0xff, 0xff, 0xff, 0x01, 0x00, 0x00, 0x00, 0xb2, 0xb5, 0x09, 0x3d, 0x27, 0x00, 0x00, 0x00, 0x73, 0x65, 0x71, 0x75, 0x65, 0x6e, 0x74, 0x69, 0x61, 0x6c, 0x5f, 0x32, 0x2f, 0x6d, 0x61, 0x78, 0x5f, 0x70, 0x6f, 0x6f, 0x6c, 0x69, 0x6e, 0x67, 0x31, 0x64, 0x5f, 0x34, 0x2f, 0x45, 0x78, 0x70, 0x61, 0x6e, 0x64, 0x44, 0x69, 0x6d, 0x73, 0x00, 0x04, 0x00, 0x00, 0x00, 0x01, 0x00, 0x00, 0x00, 0x64, 0x00, 0x00, 0x00, 0x01, 0x00, 0x00, 0x00, 0x10, 0x00, 0x00, 0x00, 0x9a, 0xe9, 0xff, 0xff, 0x00, 0x00, 0x00, 0x01, 0x18, 0x00, 0x00, 0x00, 0x24, 0x00, 0x00, 0x00, 0x44, 0x00, 0x00, 0x00, 0x1c, 0x00, 0x00, 0x00, 0x00, 0x00, 0x00, 0x09, 0x90, 0x01, 0x00, 0x00, 0x03, 0x00, 0x00, 0x00, 0xff, 0xff, 0xff, 0xff, 0x64, 0x00, 0x00, 0x00, 0x10, 0x00, 0x00, 0x00, 0x84, 0xe9, 0xff, 0xff, 0x08, 0x00, 0x00, 0x00, 0x14, 0x00, 0x00, 0x00, 0x01, 0x00, 0x00, 0x00, 0x88, 0xff, 0xff, 0xff, 0xff, 0xff, 0xff, 0xff, 0x00, 0x00, 0x00, 0x00, 0x01, 0x00, 0x00, 0x00, 0xb2, 0xb5, 0x09, 0x3d, 0x53, 0x01, 0x00, 0x00, 0x73, 0x65, 0x71, 0x75, 0x65, 0x6e, 0x74, 0x69, 0x61, 0x6c, 0x5f, 0x32, 0x2f, 0x62, 0x61, 0x74, 0x63, 0x68, 0x5f, 0x6e, 0x6f, 0x72, 0x6d, 0x61, 0x6c, 0x69, 0x7a, 0x61, 0x74, 0x69, 0x6f, 0x6e, 0x5f, 0x34, 0x2f, 0x62, 0x61, 0x74, 0x63, 0x68, 0x6e, 0x6f, 0x72, 0x6d, 0x2f, 0x61, 0x64, 0x64, 0x5f, 0x31, 0x3b, 0x73, 0x65, 0x71, 0x75, 0x65, 0x6e, 0x74, 0x69, 0x61, 0x6c, 0x5f, 0x32, 0x2f, 0x63, 0x6f, 0x6e, 0x76, 0x31, 0x64, 0x5f, 0x36, 0x2f, 0x43, 0x6f, 0x6e, 0x76, 0x31, 0x44, 0x2f, 0x53, 0x71, 0x75, 0x65, 0x65, 0x7a, 0x65, 0x3b, 0x73, 0x65, 0x71, 0x75, 0x65, 0x6e, 0x74, 0x69, 0x61, 0x6c, 0x5f, 0x32, 0x2f, 0x62, 0x61, 0x74, 0x63, 0x68, 0x5f, 0x6e, 0x6f, 0x72, 0x6d, 0x61, 0x6c, 0x69, 0x7a, 0x61, 0x74, 0x69, 0x6f, 0x6e, 0x5f, 0x34, 0x2f, 0x62, 0x61, 0x74, 0x63, 0x68, 0x6e, 0x6f, 0x72, 0x6d, 0x2f, 0x6d, 0x75, 0x6c, 0x5f, 0x31, 0x3b, 0x73, 0x65, 0x71, 0x75, 0x65, 0x6e, 0x74, 0x69, 0x61, 0x6c, 0x5f, 0x32, 0x2f, 0x63, 0x6f, 0x6e, 0x76, 0x31, 0x64, 0x5f, 0x36, 0x2f, 0x52, 0x65, 0x6c, 0x75, 0x3b, 0x73, 0x65, 0x71, 0x75, 0x65, 0x6e, 0x74, 0x69, 0x61, 0x6c, 0x5f, 0x32, 0x2f, 0x63, 0x6f, 0x6e, 0x76, 0x31, 0x64, 0x5f, 0x36, 0x2f, 0x42, 0x69, 0x61, 0x73, 0x41, 0x64, 0x64, 0x3b, 0x73, 0x65, 0x71, 0x75, 0x65, 0x6e, 0x74, 0x69, 0x61, 0x6c, 0x5f, 0x32, 0x2f, 0x63, 0x6f, 0x6e, 0x76, 0x31, 0x64, 0x5f, 0x36, 0x2f, 0x42, 0x69, 0x61, 0x73, 0x41, 0x64, 0x64, 0x2f, 0x52, 0x65, 0x61, 0x64, 0x56, 0x61, 0x72, 0x69, 0x61, 0x62, 0x6c, 0x65, 0x4f, 0x70, 0x3b, 0x73, 0x65, 0x71, 0x75, 0x65, 0x6e, 0x74, 0x69, 0x61, 0x6c, 0x5f, 0x32, 0x2f, 0x62, 0x61, 0x74, 0x63, 0x68, 0x5f, 0x6e, 0x6f, 0x72, 0x6d, 0x61, 0x6c, 0x69, 0x7a, 0x61, 0x74, 0x69, 0x6f, 0x6e, 0x5f, 0x34, 0x2f, 0x62, 0x61, 0x74, 0x63, 0x68, 0x6e, 0x6f, 0x72, 0x6d, 0x2f, 0x6d, 0x75, 0x6c, 0x3b, 0x73, 0x65, 0x71, 0x75, 0x65, 0x6e, 0x74, 0x69, 0x61, 0x6c, 0x5f, 0x32, 0x2f, 0x62, 0x61, 0x74, 0x63, 0x68, 0x5f, 0x6e, 0x6f, 0x72, 0x6d, 0x61, 0x6c, 0x69, 0x7a, 0x61, 0x74, 0x69, 0x6f, 0x6e, 0x5f, 0x34, 0x2f, 0x62, 0x61, 0x74, 0x63, 0x68, 0x6e, 0x6f, 0x72, 0x6d, 0x2f, 0x73, 0x75, 0x62, 0x31, 0x00, 0x03, 0x00, 0x00, 0x00, 0x01, 0x00, 0x00, 0x00, 0x64, 0x00, 0x00, 0x00, 0x10, 0x00, 0x00, 0x00, 0x56, 0xeb, 0xff, 0xff, 0x00, 0x00, 0x00, 0x01, 0x18, 0x00, 0x00, 0x00, 0x28, 0x00, 0x00, 0x00, 0x44, 0x00, 0x00, 0x00, 0x1b, 0x00, 0x00, 0x00, 0x00, 0x00, 0x00, 0x09, 0x90, 0x01, 0x00, 0x00, 0x04, 0x00, 0x00, 0x00, 0xff, 0xff, 0xff, 0xff, 0x01, 0x00, 0x00, 0x00, 0x64, 0x00, 0x00, 0x00, 0x10, 0x00, 0x00, 0x00, 0x44, 0xeb, 0xff, 0xff, 0x08, 0x00, 0x00, 0x00, 0x10, 0x00, 0x00, 0x00, 0x01, 0x00, 0x00, 0x00, 0x88, 0xff, 0xff, 0xff, 0xff, 0xff, 0xff, 0xff, 0x01, 0x00, 0x00, 0x00, 0xb2, 0xb5, 0x09, 0x3d, 0x52, 0x01, 0x00, 0x00, 0x73, 0x65, 0x71, 0x75, 0x65, 0x6e, 0x74, 0x69, 0x61, 0x6c, 0x5f, 0x32, 0x2f, 0x62, 0x61, 0x74, 0x63, 0x68, 0x5f, 0x6e, 0x6f, 0x72, 0x6d, 0x61, 0x6c, 0x69, 0x7a, 0x61, 0x74, 0x69, 0x6f, 0x6e, 0x5f, 0x34, 0x2f, 0x62, 0x61, 0x74, 0x63, 0x68, 0x6e, 0x6f, 0x72, 0x6d, 0x2f, 0x61, 0x64, 0x64, 0x5f, 0x31, 0x3b, 0x73, 0x65, 0x71, 0x75, 0x65, 0x6e, 0x74, 0x69, 0x61, 0x6c, 0x5f, 0x32, 0x2f, 0x63, 0x6f, 0x6e, 0x76, 0x31, 0x64, 0x5f, 0x36, 0x2f, 0x43, 0x6f, 0x6e, 0x76, 0x31, 0x44, 0x2f, 0x53, 0x71, 0x75, 0x65, 0x65, 0x7a, 0x65, 0x3b, 0x73, 0x65, 0x71, 0x75, 0x65, 0x6e, 0x74, 0x69, 0x61, 0x6c, 0x5f, 0x32, 0x2f, 0x62, 0x61, 0x74, 0x63, 0x68, 0x5f, 0x6e, 0x6f, 0x72, 0x6d, 0x61, 0x6c, 0x69, 0x7a, 0x61, 0x74, 0x69, 0x6f, 0x6e, 0x5f, 0x34, 0x2f, 0x62, 0x61, 0x74, 0x63, 0x68, 0x6e, 0x6f, 0x72, 0x6d, 0x2f, 0x6d, 0x75, 0x6c, 0x5f, 0x31, 0x3b, 0x73, 0x65, 0x71, 0x75, 0x65, 0x6e, 0x74, 0x69, 0x61, 0x6c, 0x5f, 0x32, 0x2f, 0x63, 0x6f, 0x6e, 0x76, 0x31, 0x64, 0x5f, 0x36, 0x2f, 0x52, 0x65, 0x6c, 0x75, 0x3b, 0x73, 0x65, 0x71, 0x75, 0x65, 0x6e, 0x74, 0x69, 0x61, 0x6c, 0x5f, 0x32, 0x2f, 0x63, 0x6f, 0x6e, 0x76, 0x31, 0x64, 0x5f, 0x36, 0x2f, 0x42, 0x69, 0x61, 0x73, 0x41, 0x64, 0x64, 0x3b, 0x73, 0x65, 0x71, 0x75, 0x65, 0x6e, 0x74, 0x69, 0x61, 0x6c, 0x5f, 0x32, 0x2f, 0x63, 0x6f, 0x6e, 0x76, 0x31, 0x64, 0x5f, 0x36, 0x2f, 0x42, 0x69, 0x61, 0x73, 0x41, 0x64, 0x64, 0x2f, 0x52, 0x65, 0x61, 0x64, 0x56, 0x61, 0x72, 0x69, 0x61, 0x62, 0x6c, 0x65, 0x4f, 0x70, 0x3b, 0x73, 0x65, 0x71, 0x75, 0x65, 0x6e, 0x74, 0x69, 0x61, 0x6c, 0x5f, 0x32, 0x2f, 0x62, 0x61, 0x74, 0x63, 0x68, 0x5f, 0x6e, 0x6f, 0x72, 0x6d, 0x61, 0x6c, 0x69, 0x7a, 0x61, 0x74, 0x69, 0x6f, 0x6e, 0x5f, 0x34, 0x2f, 0x62, 0x61, 0x74, 0x63, 0x68, 0x6e, 0x6f, 0x72, 0x6d, 0x2f, 0x6d, 0x75, 0x6c, 0x3b, 0x73, 0x65, 0x71, 0x75, 0x65, 0x6e, 0x74, 0x69, 0x61, 0x6c, 0x5f, 0x32, 0x2f, 0x62, 0x61, 0x74, 0x63, 0x68, 0x5f, 0x6e, 0x6f, 0x72, 0x6d, 0x61, 0x6c, 0x69, 0x7a, 0x61, 0x74, 0x69, 0x6f, 0x6e, 0x5f, 0x34, 0x2f, 0x62, 0x61, 0x74, 0x63, 0x68, 0x6e, 0x6f, 0x72, 0x6d, 0x2f, 0x73, 0x75, 0x62, 0x00, 0x00, 0x04, 0x00, 0x00, 0x00, 0x01, 0x00, 0x00, 0x00, 0x01, 0x00, 0x00, 0x00, 0x64, 0x00, 0x00, 0x00, 0x10, 0x00, 0x00, 0x00, 0x16, 0xed, 0xff, 0xff, 0x00, 0x00, 0x00, 0x01, 0x18, 0x00, 0x00, 0x00, 0x28, 0x00, 0x00, 0x00, 0x48, 0x00, 0x00, 0x00, 0x1a, 0x00, 0x00, 0x00, 0x00, 0x00, 0x00, 0x09, 0x30, 0x01, 0x00, 0x00, 0x04, 0x00, 0x00, 0x00, 0xff, 0xff, 0xff, 0xff, 0x01, 0x00, 0x00, 0x00, 0x64, 0x00, 0x00, 0x00, 0x10, 0x00, 0x00, 0x00, 0x04, 0xed, 0xff, 0xff, 0x08, 0x00, 0x00, 0x00, 0x14, 0x00, 0x00, 0x00, 0x01, 0x00, 0x00, 0x00, 0x80, 0xff, 0xff, 0xff, 0xff, 0xff, 0xff, 0xff, 0x00, 0x00, 0x00, 0x00, 0x01, 0x00, 0x00, 0x00, 0xc4, 0x54, 0x09, 0x3d, 0xee, 0x00, 0x00, 0x00, 0x73, 0x65, 0x71, 0x75, 0x65, 0x6e, 0x74, 0x69, 0x61, 0x6c, 0x5f, 0x32, 0x2f, 0x62, 0x61, 0x74, 0x63, 0x68, 0x5f, 0x6e, 0x6f, 0x72, 0x6d, 0x61, 0x6c, 0x69, 0x7a, 0x61, 0x74, 0x69, 0x6f, 0x6e, 0x5f, 0x34, 0x2f, 0x62, 0x61, 0x74, 0x63, 0x68, 0x6e, 0x6f, 0x72, 0x6d, 0x2f, 0x6d, 0x75, 0x6c, 0x5f, 0x31, 0x3b, 0x73, 0x65, 0x71, 0x75, 0x65, 0x6e, 0x74, 0x69, 0x61, 0x6c, 0x5f, 0x32, 0x2f, 0x63, 0x6f, 0x6e, 0x76, 0x31, 0x64, 0x5f, 0x36, 0x2f, 0x43, 0x6f, 0x6e, 0x76, 0x31, 0x44, 0x2f, 0x53, 0x71, 0x75, 0x65, 0x65, 0x7a, 0x65, 0x3b, 0x73, 0x65, 0x71, 0x75, 0x65, 0x6e, 0x74, 0x69, 0x61, 0x6c, 0x5f, 0x32, 0x2f, 0x63, 0x6f, 0x6e, 0x76, 0x31, 0x64, 0x5f, 0x36, 0x2f, 0x52, 0x65, 0x6c, 0x75, 0x3b, 0x73, 0x65, 0x71, 0x75, 0x65, 0x6e, 0x74, 0x69, 0x61, 0x6c, 0x5f, 0x32, 0x2f, 0x63, 0x6f, 0x6e, 0x76, 0x31, 0x64, 0x5f, 0x36, 0x2f, 0x42, 0x69, 0x61, 0x73, 0x41, 0x64, 0x64, 0x3b, 0x73, 0x65, 0x71, 0x75, 0x65, 0x6e, 0x74, 0x69, 0x61, 0x6c, 0x5f, 0x32, 0x2f, 0x63, 0x6f, 0x6e, 0x76, 0x31, 0x64, 0x5f, 0x36, 0x2f, 0x42, 0x69, 0x61, 0x73, 0x41, 0x64, 0x64, 0x2f, 0x52, 0x65, 0x61, 0x64, 0x56, 0x61, 0x72, 0x69, 0x61, 0x62, 0x6c, 0x65, 0x4f, 0x70, 0x3b, 0x73, 0x65, 0x71, 0x75, 0x65, 0x6e, 0x74, 0x69, 0x61, 0x6c, 0x5f, 0x32, 0x2f, 0x62, 0x61, 0x74, 0x63, 0x68, 0x5f, 0x6e, 0x6f, 0x72, 0x6d, 0x61, 0x6c, 0x69, 0x7a, 0x61, 0x74, 0x69, 0x6f, 0x6e, 0x5f, 0x34, 0x2f, 0x62, 0x61, 0x74, 0x63, 0x68, 0x6e, 0x6f, 0x72, 0x6d, 0x2f, 0x6d, 0x75, 0x6c, 0x00, 0x00, 0x04, 0x00, 0x00, 0x00, 0x01, 0x00, 0x00, 0x00, 0x01, 0x00, 0x00, 0x00, 0x64, 0x00, 0x00, 0x00, 0x10, 0x00, 0x00, 0x00, 0x76, 0xee, 0xff, 0xff, 0x00, 0x00, 0x00, 0x01, 0x18, 0x00, 0x00, 0x00, 0x28, 0x00, 0x00, 0x00, 0x48, 0x00, 0x00, 0x00, 0x19, 0x00, 0x00, 0x00, 0x00, 0x00, 0x00, 0x09, 0xe8, 0x00, 0x00, 0x00, 0x04, 0x00, 0x00, 0x00, 0xff, 0xff, 0xff, 0xff, 0x01, 0x00, 0x00, 0x00, 0x64, 0x00, 0x00, 0x00, 0x10, 0x00, 0x00, 0x00, 0x64, 0xee, 0xff, 0xff, 0x08, 0x00, 0x00, 0x00, 0x14, 0x00, 0x00, 0x00, 0x01, 0x00, 0x00, 0x00, 0x80, 0xff, 0xff, 0xff, 0xff, 0xff, 0xff, 0xff, 0x00, 0x00, 0x00, 0x00, 0x01, 0x00, 0x00, 0x00, 0x9e, 0xb8, 0xcf, 0x3c, 0xa7, 0x00, 0x00, 0x00, 0x73, 0x65, 0x71, 0x75, 0x65, 0x6e, 0x74, 0x69, 0x61, 0x6c, 0x5f, 0x32, 0x2f, 0x63, 0x6f, 0x6e, 0x76, 0x31, 0x64, 0x5f, 0x36, 0x2f, 0x52, 0x65, 0x6c, 0x75, 0x3b, 0x73, 0x65, 0x71, 0x75, 0x65, 0x6e, 0x74, 0x69, 0x61, 0x6c, 0x5f, 0x32, 0x2f, 0x63, 0x6f, 0x6e, 0x76, 0x31, 0x64, 0x5f, 0x36, 0x2f, 0x42, 0x69, 0x61, 0x73, 0x41, 0x64, 0x64, 0x3b, 0x73, 0x65, 0x71, 0x75, 0x65, 0x6e, 0x74, 0x69, 0x61, 0x6c, 0x5f, 0x32, 0x2f, 0x63, 0x6f, 0x6e, 0x76, 0x31, 0x64, 0x5f, 0x36, 0x2f, 0x43, 0x6f, 0x6e, 0x76, 0x31, 0x44, 0x2f, 0x53, 0x71, 0x75, 0x65, 0x65, 0x7a, 0x65, 0x3b, 0x73, 0x65, 0x71, 0x75, 0x65, 0x6e, 0x74, 0x69, 0x61, 0x6c, 0x5f, 0x32, 0x2f, 0x63, 0x6f, 0x6e, 0x76, 0x31, 0x64, 0x5f, 0x36, 0x2f, 0x42, 0x69, 0x61, 0x73, 0x41, 0x64, 0x64, 0x2f, 0x52, 0x65, 0x61, 0x64, 0x56, 0x61, 0x72, 0x69, 0x61, 0x62, 0x6c, 0x65, 0x4f, 0x70, 0x3b, 0x73, 0x65, 0x71, 0x75, 0x65, 0x6e, 0x74, 0x69, 0x61, 0x6c, 0x5f, 0x32, 0x2f, 0x63, 0x6f, 0x6e, 0x76, 0x31, 0x64, 0x5f, 0x36, 0x2f, 0x43, 0x6f, 0x6e, 0x76, 0x31, 0x44, 0x00, 0x04, 0x00, 0x00, 0x00, 0x01, 0x00, 0x00, 0x00, 0x01, 0x00, 0x00, 0x00, 0x64, 0x00, 0x00, 0x00, 0x10, 0x00, 0x00, 0x00, 0x8e, 0xef, 0xff, 0xff, 0x00, 0x00, 0x00, 0x01, 0x18, 0x00, 0x00, 0x00, 0x28, 0x00, 0x00, 0x00, 0x48, 0x00, 0x00, 0x00, 0x18, 0x00, 0x00, 0x00, 0x00, 0x00, 0x00, 0x09, 0x68, 0x00, 0x00, 0x00, 0x04, 0x00, 0x00, 0x00, 0xff, 0xff, 0xff, 0xff, 0x01, 0x00, 0x00, 0x00, 0x64, 0x00, 0x00, 0x00, 0x06, 0x00, 0x00, 0x00, 0x7c, 0xef, 0xff, 0xff, 0x08, 0x00, 0x00, 0x00, 0x14, 0x00, 0x00, 0x00, 0x01, 0x00, 0x00, 0x00, 0x07, 0x00, 0x00, 0x00, 0x00, 0x00, 0x00, 0x00, 0x00, 0x00, 0x00, 0x00, 0x01, 0x00, 0x00, 0x00, 0x4c, 0x36, 0x8d, 0x3d, 0x27, 0x00, 0x00, 0x00, 0x73, 0x65, 0x71, 0x75, 0x65, 0x6e, 0x74, 0x69, 0x61, 0x6c, 0x5f, 0x32, 0x2f, 0x63, 0x6f, 0x6e, 0x76, 0x31, 0x64, 0x5f, 0x36, 0x2f, 0x43, 0x6f, 0x6e, 0x76, 0x31, 0x44, 0x2f, 0x45, 0x78, 0x70, 0x61, 0x6e, 0x64, 0x44, 0x69, 0x6d, 0x73, 0x00, 0x04, 0x00, 0x00, 0x00, 0x01, 0x00, 0x00, 0x00, 0x01, 0x00, 0x00, 0x00, 0x64, 0x00, 0x00, 0x00, 0x06, 0x00, 0x00, 0x00, 0x96, 0xf0, 0xff, 0xff, 0x00, 0x00, 0x00, 0x01, 0x14, 0x00, 0x00, 0x00, 0xe4, 0x00, 0x00, 0x00, 0x17, 0x00, 0x00, 0x00, 0x00, 0x00, 0x00, 0x09, 0xfc, 0x00, 0x00, 0x00, 0xfc, 0xef, 0xff, 0xff, 0x08, 0x00, 0x00, 0x00, 0x88, 0x00, 0x00, 0x00, 0x10, 0x00, 0x00, 0x00, 0x00, 0x00, 0x00, 0x00, 0x00, 0x00, 0x00, 0x00, 0x00, 0x00, 0x00, 0x00, 0x00, 0x00, 0x00, 0x00, 0x00, 0x00, 0x00, 0x00, 0x00, 0x00, 0x00, 0x00, 0x00, 0x00, 0x00, 0x00, 0x00, 0x00, 0x00, 0x00, 0x00, 0x00, 0x00, 0x00, 0x00, 0x00, 0x00, 0x00, 0x00, 0x00, 0x00, 0x00, 0x00, 0x00, 0x00, 0x00, 0x00, 0x00, 0x00, 0x00, 0x00, 0x00, 0x00, 0x00, 0x00, 0x00, 0x00, 0x00, 0x00, 0x00, 0x00, 0x00, 0x00, 0x00, 0x00, 0x00, 0x00, 0x00, 0x00, 0x00, 0x00, 0x00, 0x00, 0x00, 0x00, 0x00, 0x00, 0x00, 0x00, 0x00, 0x00, 0x00, 0x00, 0x00, 0x00, 0x00, 0x00, 0x00, 0x00, 0x00, 0x00, 0x00, 0x00, 0x00, 0x00, 0x00, 0x00, 0x00, 0x00, 0x00, 0x00, 0x00, 0x00, 0x00, 0x00, 0x00, 0x00, 0x00, 0x00, 0x00, 0x00, 0x00, 0x00, 0x00, 0x00, 0x00, 0x00, 0x00, 0x00, 0x00, 0x00, 0x00, 0x00, 0x00, 0x00, 0x00, 0x10, 0x00, 0x00, 0x00, 0x82, 0x13, 0x05, 0x3b, 0x89, 0x21, 0x00, 0x3b, 0xa1, 0xa6, 0xf4, 0x3a, 0xc3, 0x72, 0xf0, 0x3a, 0xf4, 0xc1, 0xf7, 0x3a, 0x58, 0x96, 0xf2, 0x3a, 0x5f, 0xf9, 0xe0, 0x3a, 0xdb, 0xad, 0x0d, 0x3b, 0xf9, 0x70, 0xe5, 0x3a, 0x55, 0x58, 0x01, 0x3b, 0x66, 0x75, 0x0f, 0x3b, 0x77, 0x17, 0xfc, 0x3a, 0x2d, 0xf7, 0x14, 0x3b, 0x91, 0x49, 0xe8, 0x3a, 0x21, 0x31, 0xef, 0x3a, 0xc1, 0x1e, 0x06, 0x3b, 0x1c, 0x00, 0x00, 0x00, 0x73, 0x65, 0x71, 0x75, 0x65, 0x6e, 0x74, 0x69, 0x61, 0x6c, 0x5f, 0x32, 0x2f, 0x63, 0x6f, 0x6e, 0x76, 0x31, 0x64, 0x5f, 0x36, 0x2f, 0x43, 0x6f, 0x6e, 0x76, 0x31, 0x44, 0x00, 0x00, 0x00, 0x00, 0x04, 0x00, 0x00, 0x00, 0x10, 0x00, 0x00, 0x00, 0x01, 0x00, 0x00, 0x00, 0x05, 0x00, 0x00, 0x00, 0x06, 0x00, 0x00, 0x00, 0xbe, 0xf1, 0xff, 0xff, 0x00, 0x00, 0x00, 0x01, 0x14, 0x00, 0x00, 0x00, 0xe8, 0x00, 0x00, 0x00, 0x16, 0x00, 0x00, 0x00, 0x00, 0x00, 0x00, 0x02, 0x10, 0x01, 0x00, 0x00, 0x24, 0xf1, 0xff, 0xff, 0x08, 0x00, 0x00, 0x00, 0x8c, 0x00, 0x00, 0x00, 0x10, 0x00, 0x00, 0x00, 0x00, 0x00, 0x00, 0x00, 0x00, 0x00, 0x00, 0x00, 0x00, 0x00, 0x00, 0x00, 0x00, 0x00, 0x00, 0x00, 0x00, 0x00, 0x00, 0x00, 0x00, 0x00, 0x00, 0x00, 0x00, 0x00, 0x00, 0x00, 0x00, 0x00, 0x00, 0x00, 0x00, 0x00, 0x00, 0x00, 0x00, 0x00, 0x00, 0x00, 0x00, 0x00, 0x00, 0x00, 0x00, 0x00, 0x00, 0x00, 0x00, 0x00, 0x00, 0x00, 0x00, 0x00, 0x00, 0x00, 0x00, 0x00, 0x00, 0x00, 0x00, 0x00, 0x00, 0x00, 0x00, 0x00, 0x00, 0x00, 0x00, 0x00, 0x00, 0x00, 0x00, 0x00, 0x00, 0x00, 0x00, 0x00, 0x00, 0x00, 0x00, 0x00, 0x00, 0x00, 0x00, 0x00, 0x00, 0x00, 0x00, 0x00, 0x00, 0x00, 0x00, 0x00, 0x00, 0x00, 0x00, 0x00, 0x00, 0x00, 0x00, 0x00, 0x00, 0x00, 0x00, 0x00, 0x00, 0x00, 0x00, 0x00, 0x00, 0x00, 0x00, 0x00, 0x00, 0x00, 0x00, 0x00, 0x00, 0x00, 0x00, 0x00, 0x00, 0x00, 0x00, 0x00, 0x00, 0x00, 0x00, 0x00, 0x00, 0x00, 0x10, 0x00, 0x00, 0x00, 0xf0, 0xcf, 0x12, 0x39, 0x4b, 0x5b, 0x0d, 0x39, 0xaa, 0xf3, 0x06, 0x39, 0x35, 0xa2, 0x04, 0x39, 0x60, 0xaa, 0x08, 0x39, 0x42, 0xd0, 0x05, 0x39, 0x21, 0x32, 0xf8, 0x38, 0x9d, 0x4d, 0x1c, 0x39, 0xc6, 0x1f, 0xfd, 0x38, 0x2c, 0xb2, 0x0e, 0x39, 0x2d, 0x44, 0x1e, 0x39, 0x64, 0x0e, 0x0b, 0x39, 0x78, 0x57, 0x24, 0x39, 0xc9, 0x21, 0x00, 0x39, 0xcb, 0xf0, 0x03, 0x39, 0xc5, 0xf6, 0x13, 0x39, 0x2c, 0x00, 0x00, 0x00, 0x73, 0x65, 0x71, 0x75, 0x65, 0x6e, 0x74, 0x69, 0x61, 0x6c, 0x5f, 0x32, 0x2f, 0x63, 0x6f, 0x6e, 0x76, 0x31, 0x64, 0x5f, 0x36, 0x2f, 0x42, 0x69, 0x61, 0x73, 0x41, 0x64, 0x64, 0x2f, 0x52, 0x65, 0x61, 0x64, 0x56, 0x61, 0x72, 0x69, 0x61, 0x62, 0x6c, 0x65, 0x4f, 0x70, 0x00, 0x00, 0x00, 0x00, 0x01, 0x00, 0x00, 0x00, 0x10, 0x00, 0x00, 0x00, 0xee, 0xf2, 0xff, 0xff, 0x00, 0x00, 0x00, 0x01, 0x14, 0x00, 0x00, 0x00, 0x34, 0x00, 0x00, 0x00, 0x15, 0x00, 0x00, 0x00, 0x00, 0x00, 0x00, 0x09, 0x60, 0x00, 0x00, 0x00, 0x54, 0xf2, 0xff, 0xff, 0x08, 0x00, 0x00, 0x00, 0x14, 0x00, 0x00, 0x00, 0x01, 0x00, 0x00, 0x00, 0x80, 0xff, 0xff, 0xff, 0xff, 0xff, 0xff, 0xff, 0x00, 0x00, 0x00, 0x00, 0x01, 0x00, 0x00, 0x00, 0x63, 0xfc, 0xc4, 0x3b, 0x30, 0x00, 0x00, 0x00, 0x73, 0x65, 0x71, 0x75, 0x65, 0x6e, 0x74, 0x69, 0x61, 0x6c, 0x5f, 0x32, 0x2f, 0x62, 0x61, 0x74, 0x63, 0x68, 0x5f, 0x6e, 0x6f, 0x72, 0x6d, 0x61, 0x6c, 0x69, 0x7a, 0x61, 0x74, 0x69, 0x6f, 0x6e, 0x5f, 0x34, 0x2f, 0x62, 0x61, 0x74, 0x63, 0x68, 0x6e, 0x6f, 0x72, 0x6d, 0x2f, 0x6d, 0x75, 0x6c, 0x00, 0x00, 0x00, 0x00, 0x01, 0x00, 0x00, 0x00, 0x10, 0x00, 0x00, 0x00, 0x6e, 0xf3, 0xff, 0xff, 0x00, 0x00, 0x00, 0x01, 0x14, 0x00, 0x00, 0x00, 0x34, 0x00, 0x00, 0x00, 0x14, 0x00, 0x00, 0x00, 0x00, 0x00, 0x00, 0x09, 0x60, 0x00, 0x00, 0x00, 0xd4, 0xf2, 0xff, 0xff, 0x08, 0x00, 0x00, 0x00, 0x14, 0x00, 0x00, 0x00, 0x01, 0x00, 0x00, 0x00, 0x7f, 0x00, 0x00, 0x00, 0x00, 0x00, 0x00, 0x00, 0x00, 0x00, 0x00, 0x00, 0x01, 0x00, 0x00, 0x00, 0x79, 0x30, 0x87, 0x3a, 0x30, 0x00, 0x00, 0x00, 0x73, 0x65, 0x71, 0x75, 0x65, 0x6e, 0x74, 0x69, 0x61, 0x6c, 0x5f, 0x32, 0x2f, 0x62, 0x61, 0x74, 0x63, 0x68, 0x5f, 0x6e, 0x6f, 0x72, 0x6d, 0x61, 0x6c, 0x69, 0x7a, 0x61, 0x74, 0x69, 0x6f, 0x6e, 0x5f, 0x34, 0x2f, 0x62, 0x61, 0x74, 0x63, 0x68, 0x6e, 0x6f, 0x72, 0x6d, 0x2f, 0x73, 0x75, 0x62, 0x00, 0x00, 0x00, 0x00, 0x01, 0x00, 0x00, 0x00, 0x10, 0x00, 0x00, 0x00, 0xee, 0xf3, 0xff, 0xff, 0x00, 0x00, 0x00, 0x01, 0x14, 0x00, 0x00, 0x00, 0x44, 0x01, 0x00, 0x00, 0x13, 0x00, 0x00, 0x00, 0x00, 0x00, 0x00, 0x09, 0x5c, 0x01, 0x00, 0x00, 0x54, 0xf3, 0xff, 0xff, 0x08, 0x00, 0x00, 0x00, 0xc8, 0x00, 0x00, 0x00, 0x18, 0x00, 0x00, 0x00, 0x00, 0x00, 0x00, 0x00, 0x00, 0x00, 0x00, 0x00, 0x00, 0x00, 0x00, 0x00, 0x00, 0x00, 0x00, 0x00, 0x00, 0x00, 0x00, 0x00, 0x00, 0x00, 0x00, 0x00, 0x00, 0x00, 0x00, 0x00, 0x00, 0x00, 0x00, 0x00, 0x00, 0x00, 0x00, 0x00, 0x00, 0x00, 0x00, 0x00, 0x00, 0x00, 0x00, 0x00, 0x00, 0x00, 0x00, 0x00, 0x00, 0x00, 0x00, 0x00, 0x00, 0x00, 0x00, 0x00, 0x00, 0x00, 0x00, 0x00, 0x00, 0x00, 0x00, 0x00, 0x00, 0x00, 0x00, 0x00, 0x00, 0x00, 0x00, 0x00, 0x00, 0x00, 0x00, 0x00, 0x00, 0x00, 0x00, 0x00, 0x00, 0x00, 0x00, 0x00, 0x00, 0x00, 0x00, 0x00, 0x00, 0x00, 0x00, 0x00, 0x00, 0x00, 0x00, 0x00, 0x00, 0x00, 0x00, 0x00, 0x00, 0x00, 0x00, 0x00, 0x00, 0x00, 0x00, 0x00, 0x00, 0x00, 0x00, 0x00, 0x00, 0x00, 0x00, 0x00, 0x00, 0x00, 0x00, 0x00, 0x00, 0x00, 0x00, 0x00, 0x00, 0x00, 0x00, 0x00, 0x00, 0x00, 0x00, 0x00, 0x00, 0x00, 0x00, 0x00, 0x00, 0x00, 0x00, 0x00, 0x00, 0x00, 0x00, 0x00, 0x00, 0x00, 0x00, 0x00, 0x00, 0x00, 0x00, 0x00, 0x00, 0x00, 0x00, 0x00, 0x00, 0x00, 0x00, 0x00, 0x00, 0x00, 0x00, 0x00, 0x00, 0x00, 0x00, 0x00, 0x00, 0x00, 0x00, 0x00, 0x00, 0x00, 0x00, 0x00, 0x00, 0x00, 0x00, 0x00, 0x00, 0x00, 0x00, 0x00, 0x00, 0x00, 0x00, 0x00, 0x00, 0x00, 0x00, 0x00, 0x18, 0x00, 0x00, 0x00, 0x92, 0x83, 0xbc, 0x3a, 0xc6, 0x73, 0xd9, 0x3a, 0x10, 0x71, 0xd7, 0x3a, 0x8c, 0x8a, 0xcf, 0x3a, 0x78, 0x17, 0xdb, 0x3a, 0x2b, 0x44, 0xb6, 0x3a, 0x97, 0xbe, 0xd1, 0x3a, 0x3e, 0x37, 0xdc, 0x3a, 0x79, 0xf4, 0xc5, 0x3a, 0x85, 0xaf, 0xca, 0x3a, 0x36, 0xb1, 0xd7, 0x3a, 0xf5, 0x21, 0xe9, 0x3a, 0x7e, 0x73, 0xd3, 0x3a, 0xec, 0x98, 0xcf, 0x3a, 0x39, 0xd9, 0xd9, 0x3a, 0x6e, 0xee, 0xc7, 0x3a, 0xaf, 0xbe, 0xc0, 0x3a, 0xd0, 0xb5, 0xd4, 0x3a, 0xf4, 0xf6, 0xc7, 0x3a, 0x36, 0x53, 0xd9, 0x3a, 0x64, 0x48, 0xd4, 0x3a, 0x7c, 0x49, 0xde, 0x3a, 0x6f, 0x2b, 0xce, 0x3a, 0xca, 0x68, 0xc9, 0x3a, 0x1c, 0x00, 0x00, 0x00, 0x73, 0x65, 0x71, 0x75, 0x65, 0x6e, 0x74, 0x69, 0x61, 0x6c, 0x5f, 0x32, 0x2f, 0x63, 0x6f, 0x6e, 0x76, 0x31, 0x64, 0x5f, 0x37, 0x2f, 0x43, 0x6f, 0x6e, 0x76, 0x31, 0x44, 0x00, 0x00, 0x00, 0x00, 0x04, 0x00, 0x00, 0x00, 0x18, 0x00, 0x00, 0x00, 0x01, 0x00, 0x00, 0x00, 0x05, 0x00, 0x00, 0x00, 0x10, 0x00, 0x00, 0x00, 0x76, 0xf5, 0xff, 0xff, 0x00, 0x00, 0x00, 0x01, 0x14, 0x00, 0x00, 0x00, 0x48, 0x01, 0x00, 0x00, 0x12, 0x00, 0x00, 0x00, 0x00, 0x00, 0x00, 0x02, 0x70, 0x01, 0x00, 0x00, 0xdc, 0xf4, 0xff, 0xff, 0x08, 0x00, 0x00, 0x00, 0xcc, 0x00, 0x00, 0x00, 0x18, 0x00, 0x00, 0x00, 0x00, 0x00, 0x00, 0x00, 0x00, 0x00, 0x00, 0x00, 0x00, 0x00, 0x00, 0x00, 0x00, 0x00, 0x00, 0x00, 0x00, 0x00, 0x00, 0x00, 0x00, 0x00, 0x00, 0x00, 0x00, 0x00, 0x00, 0x00, 0x00, 0x00, 0x00, 0x00, 0x00, 0x00, 0x00, 0x00, 0x00, 0x00, 0x00, 0x00, 0x00, 0x00, 0x00, 0x00, 0x00, 0x00, 0x00, 0x00, 0x00, 0x00, 0x00, 0x00, 0x00, 0x00, 0x00, 0x00, 0x00, 0x00, 0x00, 0x00, 0x00, 0x00, 0x00, 0x00, 0x00, 0x00, 0x00, 0x00, 0x00, 0x00, 0x00, 0x00, 0x00, 0x00, 0x00, 0x00, 0x00, 0x00, 0x00, 0x00, 0x00, 0x00, 0x00, 0x00, 0x00, 0x00, 0x00, 0x00, 0x00, 0x00, 0x00, 0x00, 0x00, 0x00, 0x00, 0x00, 0x00, 0x00, 0x00, 0x00, 0x00, 0x00, 0x00, 0x00, 0x00, 0x00, 0x00, 0x00, 0x00, 0x00, 0x00, 0x00, 0x00, 0x00, 0x00, 0x00, 0x00, 0x00, 0x00, 0x00, 0x00, 0x00, 0x00, 0x00, 0x00, 0x00, 0x00, 0x00, 0x00, 0x00, 0x00, 0x00, 0x00, 0x00, 0x00, 0x00, 0x00, 0x00, 0x00, 0x00, 0x00, 0x00, 0x00, 0x00, 0x00, 0x00, 0x00, 0x00, 0x00, 0x00, 0x00, 0x00, 0x00, 0x00, 0x00, 0x00, 0x00, 0x00, 0x00, 0x00, 0x00, 0x00, 0x00, 0x00, 0x00, 0x00, 0x00, 0x00, 0x00, 0x00, 0x00, 0x00, 0x00, 0x00, 0x00, 0x00, 0x00, 0x00, 0x00, 0x00, 0x00, 0x00, 0x00, 0x00, 0x00, 0x00, 0x00, 0x00, 0x00, 0x00, 0x00, 0x00, 0x00, 0x00, 0x00, 0x00, 0x18, 0x00, 0x00, 0x00, 0x6a, 0xd0, 0x4a, 0x38, 0x96, 0xf2, 0x69, 0x38, 0xd5, 0xc8, 0x67, 0x38, 0xe4, 0x48, 0x5f, 0x38, 0x1e, 0xb6, 0x6b, 0x38, 0xb0, 0x17, 0x44, 0x38, 0xb9, 0xa7, 0x61, 0x38, 0xb9, 0xeb, 0x6c, 0x38, 0xa8, 0xf8, 0x54, 0x38, 0x92, 0x0f, 0x5a, 0x38, 0xd8, 0x0d, 0x68, 0x38, 0x46, 0xd1, 0x7a, 0x38, 0xc4, 0x7d, 0x63, 0x38, 0x5c, 0x58, 0x5f, 0x38, 0xbb, 0x5f, 0x6a, 0x38, 0xff, 0x18, 0x57, 0x38, 0xb1, 0x5d, 0x4f, 0x38, 0x8a, 0xd8, 0x64, 0x38, 0x2a, 0x22, 0x57, 0x38, 0x8e, 0xcf, 0x69, 0x38, 0xd1, 0x62, 0x64, 0x38, 0x30, 0x26, 0x6f, 0x38, 0x25, 0xcf, 0x5d, 0x38, 0x0e, 0xb0, 0x58, 0x38, 0x2c, 0x00, 0x00, 0x00, 0x73, 0x65, 0x71, 0x75, 0x65, 0x6e, 0x74, 0x69, 0x61, 0x6c, 0x5f, 0x32, 0x2f, 0x63, 0x6f, 0x6e, 0x76, 0x31, 0x64, 0x5f, 0x37, 0x2f, 0x42, 0x69, 0x61, 0x73, 0x41, 0x64, 0x64, 0x2f, 0x52, 0x65, 0x61, 0x64, 0x56, 0x61, 0x72, 0x69, 0x61, 0x62, 0x6c, 0x65, 0x4f, 0x70, 0x00, 0x00, 0x00, 0x00, 0x01, 0x00, 0x00, 0x00, 0x18, 0x00, 0x00, 0x00, 0x06, 0xf7, 0xff, 0xff, 0x00, 0x00, 0x00, 0x01, 0x14, 0x00, 0x00, 0x00, 0x34, 0x00, 0x00, 0x00, 0x11, 0x00, 0x00, 0x00, 0x00, 0x00, 0x00, 0x09, 0x60, 0x00, 0x00, 0x00, 0x6c, 0xf6, 0xff, 0xff, 0x08, 0x00, 0x00, 0x00, 0x14, 0x00, 0x00, 0x00, 0x01, 0x00, 0x00, 0x00, 0x80, 0xff, 0xff, 0xff, 0xff, 0xff, 0xff, 0xff, 0x00, 0x00, 0x00, 0x00, 0x01, 0x00, 0x00, 0x00, 0x5a, 0xc6, 0xca, 0x3b, 0x30, 0x00, 0x00, 0x00, 0x73, 0x65, 0x71, 0x75, 0x65, 0x6e, 0x74, 0x69, 0x61, 0x6c, 0x5f, 0x32, 0x2f, 0x62, 0x61, 0x74, 0x63, 0x68, 0x5f, 0x6e, 0x6f, 0x72, 0x6d, 0x61, 0x6c, 0x69, 0x7a, 0x61, 0x74, 0x69, 0x6f, 0x6e, 0x5f, 0x35, 0x2f, 0x62, 0x61, 0x74, 0x63, 0x68, 0x6e, 0x6f, 0x72, 0x6d, 0x2f, 0x6d, 0x75, 0x6c, 0x00, 0x00, 0x00, 0x00, 0x01, 0x00, 0x00, 0x00, 0x18, 0x00, 0x00, 0x00, 0x86, 0xf7, 0xff, 0xff, 0x00, 0x00, 0x00, 0x01, 0x14, 0x00, 0x00, 0x00, 0x34, 0x00, 0x00, 0x00, 0x10, 0x00, 0x00, 0x00, 0x00, 0x00, 0x00, 0x09, 0x60, 0x00, 0x00, 0x00, 0xec, 0xf6, 0xff, 0xff, 0x08, 0x00, 0x00, 0x00, 0x14, 0x00, 0x00, 0x00, 0x01, 0x00, 0x00, 0x00, 0x7f, 0x00, 0x00, 0x00, 0x00, 0x00, 0x00, 0x00, 0x00, 0x00, 0x00, 0x00, 0x01, 0x00, 0x00, 0x00, 0x82, 0xe2, 0xc0, 0x3a, 0x30, 0x00, 0x00, 0x00, 0x73, 0x65, 0x71, 0x75, 0x65, 0x6e, 0x74, 0x69, 0x61, 0x6c, 0x5f, 0x32, 0x2f, 0x62, 0x61, 0x74, 0x63, 0x68, 0x5f, 0x6e, 0x6f, 0x72, 0x6d, 0x61, 0x6c, 0x69, 0x7a, 0x61, 0x74, 0x69, 0x6f, 0x6e, 0x5f, 0x35, 0x2f, 0x62, 0x61, 0x74, 0x63, 0x68, 0x6e, 0x6f, 0x72, 0x6d, 0x2f, 0x73, 0x75, 0x62, 0x00, 0x00, 0x00, 0x00, 0x01, 0x00, 0x00, 0x00, 0x18, 0x00, 0x00, 0x00, 0x06, 0xf8, 0xff, 0xff, 0x00, 0x00, 0x00, 0x01, 0x14, 0x00, 0x00, 0x00, 0xa4, 0x01, 0x00, 0x00, 0x0f, 0x00, 0x00, 0x00, 0x00, 0x00, 0x00, 0x09, 0xbc, 0x01, 0x00, 0x00, 0x6c, 0xf7, 0xff, 0xff, 0x08, 0x00, 0x00, 0x00, 0x08, 0x01, 0x00, 0x00, 0x20, 0x00, 0x00, 0x00, 0x00, 0x00, 0x00, 0x00, 0x00, 0x00, 0x00, 0x00, 0x00, 0x00, 0x00, 0x00, 0x00, 0x00, 0x00, 0x00, 0x00, 0x00, 0x00, 0x00, 0x00, 0x00, 0x00, 0x00, 0x00, 0x00, 0x00, 0x00, 0x00, 0x00, 0x00, 0x00, 0x00, 0x00, 0x00, 0x00, 0x00, 0x00, 0x00, 0x00, 0x00, 0x00, 0x00, 0x00, 0x00, 0x00, 0x00, 0x00, 0x00, 0x00, 0x00, 0x00, 0x00, 0x00, 0x00, 0x00, 0x00, 0x00, 0x00, 0x00, 0x00, 0x00, 0x00, 0x00, 0x00, 0x00, 0x00, 0x00, 0x00, 0x00, 0x00, 0x00, 0x00, 0x00, 0x00, 0x00, 0x00, 0x00, 0x00, 0x00, 0x00, 0x00, 0x00, 0x00, 0x00, 0x00, 0x00, 0x00, 0x00, 0x00, 0x00, 0x00, 0x00, 0x00, 0x00, 0x00, 0x00, 0x00, 0x00, 0x00, 0x00, 0x00, 0x00, 0x00, 0x00, 0x00, 0x00, 0x00, 0x00, 0x00, 0x00, 0x00, 0x00, 0x00, 0x00, 0x00, 0x00, 0x00, 0x00, 0x00, 0x00, 0x00, 0x00, 0x00, 0x00, 0x00, 0x00, 0x00, 0x00, 0x00, 0x00, 0x00, 0x00, 0x00, 0x00, 0x00, 0x00, 0x00, 0x00, 0x00, 0x00, 0x00, 0x00, 0x00, 0x00, 0x00, 0x00, 0x00, 0x00, 0x00, 0x00, 0x00, 0x00, 0x00, 0x00, 0x00, 0x00, 0x00, 0x00, 0x00, 0x00, 0x00, 0x00, 0x00, 0x00, 0x00, 0x00, 0x00, 0x00, 0x00, 0x00, 0x00, 0x00, 0x00, 0x00, 0x00, 0x00, 0x00, 0x00, 0x00, 0x00, 0x00, 0x00, 0x00, 0x00, 0x00, 0x00, 0x00, 0x00, 0x00, 0x00, 0x00, 0x00, 0x00, 0x00, 0x00, 0x00, 0x00, 0x00, 0x00, 0x00, 0x00, 0x00, 0x00, 0x00, 0x00, 0x00, 0x00, 0x00, 0x00, 0x00, 0x00, 0x00, 0x00, 0x00, 0x00, 0x00, 0x00, 0x00, 0x00, 0x00, 0x00, 0x00, 0x00, 0x00, 0x00, 0x00, 0x00, 0x00, 0x00, 0x00, 0x00, 0x00, 0x00, 0x00, 0x00, 0x00, 0x00, 0x00, 0x00, 0x00, 0x00, 0x00, 0x00, 0x00, 0x00, 0x00, 0x00, 0x00, 0x00, 0x00, 0x00, 0x00, 0x00, 0x00, 0x00, 0x20, 0x00, 0x00, 0x00, 0x68, 0xaf, 0xd4, 0x3a, 0xd6, 0xdf, 0xeb, 0x3a, 0x30, 0x1b, 0xfb, 0x3a, 0xfe, 0xd0, 0xcc, 0x3a, 0xa0, 0x30, 0xf5, 0x3a, 0xfa, 0x91, 0xdc, 0x3a, 0x16, 0x6d, 0xe0, 0x3a, 0x07, 0x59, 0xef, 0x3a, 0x45, 0xa6, 0xdf, 0x3a, 0x9d, 0x1f, 0x05, 0x3b, 0x60, 0xe3, 0xf5, 0x3a, 0x4e, 0xd2, 0xe8, 0x3a, 0x4c, 0x80, 0x00, 0x3b, 0xe1, 0x25, 0x01, 0x3b, 0x8c, 0x86, 0xf3, 0x3a, 0xa0, 0x4c, 0xf0, 0x3a, 0xe1, 0xbb, 0xce, 0x3a, 0x8d, 0x54, 0x00, 0x3b, 0x1a, 0x1c, 0xec, 0x3a, 0xf3, 0x4d, 0x00, 0x3b, 0xf6, 0xab, 0x01, 0x3b, 0x0b, 0x84, 0xda, 0x3a, 0xd2, 0x5b, 0x03, 0x3b, 0x1f, 0xc5, 0xce, 0x3a, 0x1f, 0x16, 0xe3, 0x3a, 0x7a, 0x60, 0xe5, 0x3a, 0x7d, 0x6f, 0xf6, 0x3a, 0x17, 0x2b, 0xf1, 0x3a, 0xe8, 0xbb, 0xda, 0x3a, 0xba, 0xe0, 0xe9, 0x3a, 0x9f, 0x0f, 0xf0, 0x3a, 0xb1, 0x5c, 0xf3, 0x3a, 0x1c, 0x00, 0x00, 0x00, 0x73, 0x65, 0x71, 0x75, 0x65, 0x6e, 0x74, 0x69, 0x61, 0x6c, 0x5f, 0x32, 0x2f, 0x63, 0x6f, 0x6e, 0x76, 0x31, 0x64, 0x5f, 0x38, 0x2f, 0x43, 0x6f, 0x6e, 0x76, 0x31, 0x44, 0x00, 0x00, 0x00, 0x00, 0x04, 0x00, 0x00, 0x00, 0x20, 0x00, 0x00, 0x00, 0x01, 0x00, 0x00, 0x00, 0x03, 0x00, 0x00, 0x00, 0x18, 0x00, 0x00, 0x00, 0xee, 0xf9, 0xff, 0xff, 0x00, 0x00, 0x00, 0x01, 0x14, 0x00, 0x00, 0x00, 0xa8, 0x01, 0x00, 0x00, 0x0e, 0x00, 0x00, 0x00, 0x00, 0x00, 0x00, 0x02, 0xd0, 0x01, 0x00, 0x00, 0x54, 0xf9, 0xff, 0xff, 0x08, 0x00, 0x00, 0x00, 0x0c, 0x01, 0x00, 0x00, 0x20, 0x00, 0x00, 0x00, 0x00, 0x00, 0x00, 0x00, 0x00, 0x00, 0x00, 0x00, 0x00, 0x00, 0x00, 0x00, 0x00, 0x00, 0x00, 0x00, 0x00, 0x00, 0x00, 0x00, 0x00, 0x00, 0x00, 0x00, 0x00, 0x00, 0x00, 0x00, 0x00, 0x00, 0x00, 0x00, 0x00, 0x00, 0x00, 0x00, 0x00, 0x00, 0x00, 0x00, 0x00, 0x00, 0x00, 0x00, 0x00, 0x00, 0x00, 0x00, 0x00, 0x00, 0x00, 0x00, 0x00, 0x00, 0x00, 0x00, 0x00, 0x00, 0x00, 0x00, 0x00, 0x00, 0x00, 0x00, 0x00, 0x00, 0x00, 0x00, 0x00, 0x00, 0x00, 0x00, 0x00, 0x00, 0x00, 0x00, 0x00, 0x00, 0x00, 0x00, 0x00, 0x00, 0x00, 0x00, 